▁xxunk	0
▁xxpad	0
▁xxbos	0
▁xxeos	0
▁xxfld	0
▁xxrep	0
▁xxwrep	0
▁xxup	0
▁xxmaj	0
<unk>	0
.	-3.33668
▁the	-3.3449
,	-3.45722
s	-3.67921
▁a	-3.88089
▁to	-4.06558
▁and	-4.06735
▁of	-4.07007
'	-4.10736
br	-4.29013
<	-4.30262
▁/>	-4.31592
▁is	-4.41477
▁I	-4.48841
▁in	-4.54274
▁it	-4.57164
▁this	-4.72484
▁that	-4.7276
t	-4.79206
▁	-4.85504
▁movie	-4.96555
▁was	-5.00802
-	-5.08748
ing	-5.18978
▁with	-5.19698
▁for	-5.27461
▁film	-5.32729
ed	-5.34007
▁The	-5.35639
▁but	-5.44606
▁on	-5.46597
▁you	-5.47559
▁as	-5.48365
▁"	-5.50789
▁be	-5.51854
▁have	-5.56034
▁not	-5.57637
▁(	-5.57975
▁are	-5.6182
ly	-5.69271
"	-5.72102
▁one	-5.73907
▁like	-5.86557
d	-5.89128
▁all	-5.89163
▁they	-5.9076
y	-5.91709
▁just	-5.92203
▁at	-5.93624
▁his	-5.96773
)	-5.96956
▁he	-5.98107
▁so	-5.98428
▁or	-6.0225
▁from	-6.02855
▁an	-6.02919
▁by	-6.05533
▁who	-6.07322
▁out	-6.08005
?	-6.14191
▁about	-6.14393
e	-6.18634
▁It	-6.24195
▁some	-6.25899
▁has	-6.26066
▁bad	-6.28077
!	-6.29248
▁can	-6.30569
▁good	-6.30574
▁even	-6.31427
▁there	-6.31549
n	-6.33677
▁no	-6.3435
▁if	-6.37795
▁would	-6.3878
▁up	-6.40373
...	-6.42316
▁were	-6.43485
▁what	-6.46168
▁more	-6.47504
▁had	-6.47612
▁her	-6.48405
▁me	-6.48682
m	-6.50116
▁time	-6.50681
▁This	-6.50733
▁really	-6.51296
▁only	-6.51301
The	-6.52118
▁could	-6.55091
▁when	-6.5523
▁see	-6.56906
▁my	-6.59093
▁get	-6.59461
▁very	-6.61114
▁do	-6.62674
I	-6.63759
▁been	-6.65178
▁their	-6.65749
▁much	-6.67762
▁than	-6.6787
▁story	-6.68179
▁which	-6.68931
ve	-6.69849
▁don	-6.71299
▁make	-6.71663
▁people	-6.73729
:	-6.73736
a	-6.7389
▁she	-6.75336
er	-6.75337
▁because	-6.75653
re	-6.77519
▁acting	-6.80174
▁A	-6.81216
▁plot	-6.81318
▁any	-6.81477
▁into	-6.81554
▁other	-6.833
▁made	-6.84238
▁we	-6.86734
▁-	-6.8727
▁too	-6.91627
▁how	-6.9449
▁them	-6.95018
▁will	-6.95705
▁watch	-6.96321
▁movies	-6.97078
▁seen	-6.99711
▁way	-6.99873
▁think	-7.00221
▁character	-7.00756
▁better	-7.02319
▁over	-7.02424
▁him	-7.02514
▁characters	-7.02727
▁off	-7.02817
▁know	-7.03791
▁But	-7.05424
▁most	-7.05777
▁first	-7.05887
;	-7.07309
▁being	-7.08317
r	-7.08924
▁look	-7.10113
al	-7.10702
▁then	-7.10787
▁well	-7.11417
▁ever	-7.12343
▁your	-7.12357
▁And	-7.13308
▁never	-7.15186
▁should	-7.15431
▁did	-7.15478
▁thing	-7.16781
▁where	-7.19299
▁two	-7.1972
▁i	-7.19947
▁say	-7.20142
▁something	-7.21622
▁scenes	-7.21905
or	-7.22624
▁show	-7.22941
▁scene	-7.24383
▁little	-7.24714
▁didn	-7.25896
▁go	-7.27411
▁'	-7.27866
▁many	-7.27877
▁watching	-7.28946
▁There	-7.29367
▁does	-7.29895
▁films	-7.29908
l	-7.30172
▁after	-7.30505
▁actors	-7.31274
▁S	-7.31702
▁end	-7.31912
▁also	-7.32032
ll	-7.32839
▁doesn	-7.33542
).	-7.33568
o	-7.34623
▁nothing	-7.35509
▁If	-7.36087
/	-7.36314
▁actually	-7.36923
▁here	-7.37003
▁few	-7.39373
▁want	-7.40069
▁these	-7.41153
▁back	-7.4143
p	-7.42066
▁through	-7.43946
▁minutes	-7.44422
▁work	-7.44637
▁why	-7.45192
▁great	-7.45472
▁find	-7.45509
es	-7.46507
▁funny	-7.47315
▁real	-7.47651
▁going	-7.47671
▁life	-7.48852
▁such	-7.49457
▁worst	-7.51346
▁thought	-7.51713
out	-7.51745
▁pretty	-7.51986
▁those	-7.52303
▁before	-7.52624
▁script	-7.52636
),	-7.52757
▁director	-7.52764
▁lot	-7.53069
▁He	-7.53298
▁still	-7.54577
▁In	-7.54956
▁man	-7.55343
i	-7.55623
A	-7.56449
▁horror	-7.56599
▁best	-7.56612
in	-7.57575
▁guy	-7.5787
and	-7.58039
▁original	-7.58933
▁another	-7.59223
c	-7.59737
S	-7.60361
▁B	-7.61406
▁far	-7.61527
▁down	-7.61766
▁least	-7.62437
▁seems	-7.63404
▁got	-7.65722
▁part	-7.65723
▁give	-7.65951
▁around	-7.66047
▁kind	-7.66047
▁whole	-7.66224
▁same	-7.66426
▁love	-7.66472
▁fact	-7.67012
▁enough	-7.67906
▁while	-7.67928
▁old	-7.68277
▁might	-7.6866
▁every	-7.69857
▁cast	-7.71188
the	-7.71405
en	-7.71769
▁action	-7.71837
▁isn	-7.73238
▁believe	-7.73934
▁point	-7.73953
▁stupid	-7.74459
▁its	-7.74622
▁though	-7.75339
▁reason	-7.75582
&	-7.77343
▁awful	-7.77358
▁take	-7.77969
▁am	-7.78065
▁un	-7.78169
▁feel	-7.78877
▁years	-7.78921
▁must	-7.79023
▁They	-7.79608
▁makes	-7.8006
▁terrible	-7.8028
▁big	-7.80543
▁new	-7.81151
▁C	-7.82189
on	-7.82366
▁anything	-7.82427
▁again	-7.8282
▁So	-7.8309
th	-7.84329
g	-7.84576
▁right	-7.84725
▁put	-7.84867
▁long	-7.85901
▁You	-7.86404
▁things	-7.86476
▁hard	-7.87346
▁poor	-7.87456
▁interesting	-7.87507
▁come	-7.8758
▁P	-7.87856
▁done	-7.88494
▁bit	-7.8859
▁main	-7.89183
▁quite	-7.8962
▁effects	-7.89741
▁What	-7.90301
▁camera	-7.90581
▁re	-7.90658
▁trying	-7.91384
▁may	-7.91512
▁supposed	-7.91565
▁TV	-7.92547
▁gets	-7.92815
T	-7.92959
▁probabl	-7.93039
le	-7.93066
▁looking	-7.93784
▁wasn	-7.94384
▁role	-7.95312
▁shot	-7.9545
▁someone	-7.96012
an	-7.96461
▁series	-7.96891
b	-7.97001
▁money	-7.97365
▁now	-7.97538
▁waste	-7.97693
▁almost	-7.98467
▁comedy	-7.9891
▁found	-7.99401
▁music	-7.9976
--	-7.99841
▁boring	-7.99916
▁mean	-8.00319
▁last	-8.00959
▁away	-8.00993
▁girl	-8.01054
▁looks	-8.01439
▁D	-8.01683
▁As	-8.02498
▁saw	-8.03127
▁idea	-8.03204
▁2	-8.03236
▁seem	-8.0338
it	-8.03409
▁screen	-8.03702
▁young	-8.04666
▁start	-8.04953
▁anyone	-8.0547
▁rather	-8.05768
▁times	-8.06631
▁special	-8.06937
u	-8.07202
▁name	-8.07445
h	-8.07589
▁F	-8.07594
▁T	-8.08127
▁turn	-8.0836
able	-8.08364
▁else	-8.09108
▁tell	-8.09685
▁half	-8.10408
▁worth	-8.10525
▁ending	-8.10967
se	-8.11189
▁own	-8.11203
This	-8.11204
▁between	-8.11419
▁book	-8.11825
▁since	-8.1201
▁fun	-8.12324
▁low	-8.12497
ers	-8.13164
▁us	-8.13591
▁worse	-8.13753
▁high	-8.13908
▁making	-8.13914
▁budget	-8.13929
▁No	-8.14013
▁sense	-8.14918
▁laugh	-8.15064
▁sure	-8.15215
▁woman	-8.15563
▁horrible	-8.16152
▁version	-8.16152
te	-8.16875
".	-8.1763
▁course	-8.17992
▁DVD	-8.18024
ur	-8.18043
▁day	-8.18146
▁watched	-8.18375
▁either	-8.18613
▁said	-8.18615
▁actor	-8.18695
▁always	-8.19238
▁We	-8.19502
k	-8.19563
▁sex	-8.19596
▁She	-8.19636
▁left	-8.19861
▁couple	-8.19871
▁goes	-8.20025
having	-8.20094
st	-8.20239
▁guess	-8.205
▁yet	-8.20538
▁help	-8.20649
ity	-8.20745
▁dialogue	-8.2115
ness	-8.21183
▁That	-8.21218
▁fan	-8.21219
▁To	-8.21711
▁family	-8.21791
▁rest	-8.22502
▁completely	-8.23293
ic	-8.2333
▁line	-8.23738
ion	-8.24093
▁wrong	-8.24384
D	-8.24639
P	-8.24734
▁read	-8.24933
less	-8.24998
▁world	-8.25065
▁become	-8.25075
",	-8.25098
▁use	-8.25124
▁set	-8.25301
▁understand	-8.25778
ie	-8.2607
est	-8.26231
▁short	-8.27055
▁women	-8.27084
▁10	-8.27713
▁together	-8.27741
▁ga	-8.28082
▁mind	-8.28671
▁For	-8.28694
▁comes	-8.28783
It	-8.29086
▁maybe	-8.29161
▁Not	-8.29662
ar	-8.29848
▁play	-8.30332
▁let	-8.30451
▁place	-8.30496
ri	-8.31119
▁video	-8.31266
▁piece	-8.31558
▁sound	-8.31654
▁When	-8.32003
▁getting	-8.32036
▁seeing	-8.32294
▁person	-8.3326
f	-8.33485
▁try	-8.34274
ies	-8.34367
▁next	-8.3481
▁each	-8.34813
▁sort	-8.34862
one	-8.34961
ce	-8.35405
▁seemed	-8.35474
▁once	-8.35974
▁head	-8.36026
▁men	-8.36057
E	-8.36288
▁instead	-8.36295
R	-8.36867
▁car	-8.37686
▁keep	-8.37785
▁b	-8.37903
▁All	-8.37948
▁played	-8.3839
▁both	-8.39165
▁blood	-8.39295
▁three	-8.39305
▁production	-8.39312
ation	-8.3937
▁cheap	-8.39689
▁close	-8.3976
ra	-8.39801
▁audience	-8.39828
▁less	-8.40051
▁dead	-8.40142
▁need	-8.40208
▁dur	-8.40516
▁full	-8.40806
▁near	-8.40843
▁decent	-8.40854
M	-8.41048
▁kill	-8.41286
▁ridiculous	-8.41631
▁felt	-8.41631
▁school	-8.41715
▁3	-8.41831
▁Well	-8.41938
▁used	-8.41946
up	-8.42364
▁everything	-8.4246
▁everyone	-8.42468
▁usual	-8.42486
as	-8.42766
▁under	-8.43116
▁E	-8.43229
▁M	-8.4323
▁One	-8.43557
▁American	-8.44013
▁Hollywood	-8.44014
▁absolutely	-8.44213
ir	-8.44631
especially	-8.44819
▁case	-8.44824
▁simply	-8.44835
▁however	-8.44842
at	-8.45591
▁flick	-8.45601
▁killed	-8.46135
▁friends	-8.4624
▁given	-8.46847
▁writing	-8.47308
▁itself	-8.47309
▁crap	-8.47311
▁shows	-8.47603
▁entire	-8.4777
▁title	-8.47871
▁night	-8.48111
C	-8.4822
▁John	-8.4822
▁plays	-8.4867
▁job	-8.48893
K	-8.48952
▁performance	-8.48963
▁annoying	-8.48997
▁call	-8.49332
▁My	-8.49505
▁problem	-8.49827
▁black	-8.4983
▁won	-8.5068
▁lead	-8.50808
z	-8.51299
▁lines	-8.51385
▁care	-8.51698
B	-8.51705
▁along	-8.52002
▁home	-8.52389
▁went	-8.52461
w	-8.52627
▁K	-8.53075
▁came	-8.53078
O	-8.5316
▁face	-8.53195
▁5	-8.53198
▁house	-8.53347
▁Why	-8.53412
(	-8.5376
ist	-8.54239
▁How	-8.54456
▁dialog	-8.55156
▁Even	-8.55168
▁monster	-8.55226
▁R	-8.55232
▁year	-8.5548
▁different	-8.55655
▁moments	-8.55711
▁act	-8.55845
▁himself	-8.55944
▁direction	-8.5596
▁enjoy	-8.56315
▁1	-8.56327
▁doing	-8.57099
▁friend	-8.57171
▁called	-8.57482
▁playing	-8.57582
▁hand	-8.57734
although	-8.57808
▁unti	-8.57869
▁However	-8.57915
▁O	-8.58359
▁already	-8.59628
▁At	-8.59674
▁save	-8.60309
▁beginning	-8.60572
▁classic	-8.60707
▁kids	-8.6082
▁second	-8.60857
▁guys	-8.60968
▁Don	-8.61157
▁--	-8.61214
▁lack	-8.61268
▁expect	-8.6143
▁manage	-8.61515
▁example	-8.61543
to	-8.6191
el	-8.62052
▁attempt	-8.62269
ne	-8.62496
▁dull	-8.62497
▁de	-8.62581
▁OK	-8.62611
F	-8.62961
ment	-8.63101
▁talk	-8.63149
▁recommend	-8.639
▁boy	-8.63975
▁run	-8.64057
."	-8.64165
▁4	-8.64196
▁quality	-8.64437
▁Ed	-8.6452
▁remember	-8.64941
▁nice	-8.65075
▁star	-8.65301
	-8.65427
is	-8.65962
la	-8.66072
▁wanted	-8.66117
▁complete	-8.66124
▁hope	-8.66442
▁stop	-8.66506
▁H	-8.66676
▁Oh	-8.66733
but	-8.66862
In	-8.67154
▁mother	-8.6747
▁true	-8.67481
▁On	-8.67609
am	-8.67784
▁G	-8.67948
▁matter	-8.67948
▁small	-8.68333
▁fair	-8.68429
▁cinema	-8.68444
▁myself	-8.68462
ought	-8.68699
man	-8.68958
▁mess	-8.69031
▁zombie	-8.69068
▁truly	-8.69488
▁tries	-8.69493
▁dark	-8.69502
▁THE	-8.69539
▁white	-8.69549
▁written	-8.69582
▁our	-8.6973
▁wonder	-8.70321
▁hell	-8.70541
▁hit	-8.70542
▁death	-8.7058
▁takes	-8.70598
ine	-8.71034
▁non	-8.71105
ch	-8.71428
▁group	-8.71583
▁stuff	-8.71588
▁tried	-8.71605
▁dumb	-8.71613
▁early	-8.71625
▁shots	-8.7169
▁style	-8.71737
3	-8.72405
▁thinking	-8.72583
H	-8.72609
▁etc	-8.72696
▁later	-8.72718
▁gore	-8.73187
▁picture	-8.73288
▁episode	-8.73342
ther	-8.73388
▁hour	-8.73423
▁involved	-8.73965
▁Now	-8.74057
▁side	-8.74166
ro	-8.74192
ish	-8.74584
▁With	-8.74907
ous	-8.75068
▁cover	-8.75419
▁slow	-8.75571
▁humor	-8.75891
ting	-8.76525
▁appear	-8.76707
▁kid	-8.76726
▁poorly	-8.76732
tally	-8.76816
ter	-8.76863
▁killer	-8.769
il	-8.76923
▁wife	-8.77067
N	-8.77135
▁scary	-8.77136
lo	-8.77272
▁lame	-8.77459
▁daughter	-8.77831
▁obvious	-8.78939
▁cut	-8.7909
▁local	-8.7928
▁predictable	-8.79287
▁violence	-8.79301
▁After	-8.79446
ally	-8.79614
▁live	-8.8007
▁c	-8.80173
us	-8.80297
▁Mr	-8.80394
▁past	-8.8061
li	-8.80809
▁L	-8.81033
no	-8.81041
▁leave	-8.81456
▁stay	-8.81591
▁liked	-8.82268
L	-8.82676
▁bunch	-8.82772
▁against	-8.82897
G	-8.83363
▁hate	-8.83459
ive	-8.83639
▁wouldn	-8.83784
▁children	-8.83972
▁room	-8.84218
▁W	-8.84221
▁hours	-8.84368
▁top	-8.84869
▁behind	-8.85163
!"	-8.85215
▁entertaining	-8.85249
▁bring	-8.85594
▁dog	-8.85772
▁stars	-8.863
▁genre	-8.86382
▁sever	-8.8639
▁lost	-8.86395
▁fight	-8.86416
*	-8.86532
▁cannot	-8.86535
▁weak	-8.86637
▁sad	-8.86894
ick	-8.87026
▁Some	-8.8745
▁cheesy	-8.87617
▁silly	-8.87617
▁drama	-8.87647
▁break	-8.87713
▁based	-8.87754
▁son	-8.87867
If	-8.88309
▁parts	-8.88701
▁Then	-8.88764
▁spend	-8.88885
▁history	-8.88886
▁viewer	-8.88901
▁often	-8.8892
▁throughout	-8.891
▁obviously	-8.89242
per	-8.8946
ul	-8.8962
▁able	-8.9012
▁yourself	-8.90136
▁pick	-8.90156
▁self	-8.90168
▁move	-8.90172
▁cool	-8.90195
▁Also	-8.90284
ey	-8.90337
ry	-8.90572
▁art	-8.90622
W	-8.90802
▁beautiful	-8.91057
id	-8.91328
▁pull	-8.91415
fi	-8.91475
▁heard	-8.91845
ent	-8.91886
▁took	-8.91984
▁talent	-8.92275
▁wasted	-8.92332
▁sub	-8.92468
▁performances	-8.92699
▁female	-8.92714
▁actress	-8.92725
▁certainly	-8.92929
▁none	-8.93266
um	-8.93352
▁De	-8.93358
▁late	-8.93818
▁sit	-8.93833
▁started	-8.93883
▁war	-8.93982
tic	-8.93997
▁child	-8.94012
▁themselves	-8.94029
▁knew	-8.9403
▁running	-8.94031
▁wish	-8.94039
▁possible	-8.94066
▁evil	-8.94089
▁buy	-8.94107
▁exactly	-8.94108
▁extremely	-8.94117
▁pay	-8.94129
▁type	-8.94155
▁e	-8.94456
▁cave	-8.94693
▁premise	-8.95362
▁score	-8.95369
▁disappointed	-8.95379
▁order	-8.9557
▁mention	-8.95645
▁credits	-8.95673
▁interest	-8.95674
▁seriously	-8.9569
▁directed	-8.95802
▁saying	-8.95911
▁gun	-8.96008
et	-8.96051
ty	-8.9628
▁bother	-8.96543
▁figure	-8.96556
he	-8.96628
▁beyond	-8.96717
▁major	-8.9673
▁add	-8.96797
▁st	-8.96969
▁word	-8.97012
▁final	-8.97533
▁says	-8.97799
There	-8.9782
▁fans	-8.98007
▁space	-8.98083
▁large	-8.981
▁except	-8.98147
▁Of	-8.9816
▁rent	-8.98475
ling	-8.98482
▁happen	-8.9867
....	-8.98837
▁shoot	-8.98971
▁serious	-8.9916
▁suspense	-8.99467
▁opinion	-8.99472
▁Gein	-8.99473
▁fine	-8.99566
▁Just	-8.99611
▁p	-8.99874
▁coming	-8.99945
▁His	-9
ily	-9.00092
▁comments	-9.00368
▁starts	-9.004
▁badly	-9.00403
▁consider	-9.00477
▁clear	-9.00702
▁avoid	-9.00881
▁plain	-9.00881
▁average	-9.00931
▁box	-9.01001
▁Maybe	-9.01057
▁sequel	-9.01148
▁rating	-9.01223
▁joke	-9.01251
▁town	-9.01344
▁writer	-9.01442
▁fails	-9.01496
▁wear	-9.01627
▁Jim	-9.01765
▁hero	-9.02086
▁aren	-9.0216
▁straight	-9.02308
	-9.0231
▁perhaps	-9.02368
▁First	-9.0252
▁moment	-9.02691
▁number	-9.02692
▁Joe	-9.02795
▁happened	-9.0281
▁feeling	-9.03043
And	-9.03094
huge	-9.03169
▁Man	-9.0318
▁learn	-9.03271
▁shown	-9.0338
▁wants	-9.03545
▁basically	-9.03766
▁single	-9.03768
▁told	-9.03794
▁80	-9.03876
▁review	-9.04017
▁definite	-9.04333
ad	-9.04531
▁*	-9.0466
▁write	-9.05205
▁kept	-9.05229
▁Movie	-9.05294
▁hold	-9.05324
2	-9.05338
sh	-9.05375
▁across	-9.05436
not	-9.05548
But	-9.05957
▁air	-9.0626
▁subject	-9.06723
▁trash	-9.06727
▁support	-9.06752
▁husband	-9.06811
▁sorry	-9.06825
▁U	-9.06943
▁...	-9.07018
▁hear	-9.07098
▁soon	-9.07489
do	-9.07662
▁deal	-9.07793
▁jokes	-9.07895
So	-9.07905
▁decide	-9.07958
ful	-9.0797
▁gives	-9.08001
▁cop	-9.08209
▁above	-9.08239
▁remake	-9.08266
▁pathetic	-9.08267
nt	-9.08286
▁anyway	-9.08318
▁pointless	-9.08338
▁days	-9.08355
▁father	-9.08356
of	-9.08501
me	-9.08517
▁opening	-9.0858
▁light	-9.08595
▁die	-9.08597
▁voice	-9.08722
▁comment	-9.0879
▁human	-9.08797
like	-9.08979
v	-9.0909
▁talking	-9.09125
▁reviews	-9.09352
▁h	-9.09576
▁store	-9.09776
▁spent	-9.0978
▁somewhat	-9.09861
▁sh	-9.10023
▁brother	-9.10323
▁girls	-9.11063
?"	-9.11215
▁using	-9.11266
▁material	-9.11338
▁cinematography	-9.11345
▁Hitchcock	-9.11369
▁message	-9.11386
ia	-9.11443
▁20	-9.11449
▁walk	-9.1149
?)	-9.1166
▁effort	-9.11953
▁game	-9.11997
▁turns	-9.12029
▁expected	-9.12136
▁J	-9.1237
▁middle	-9.12925
▁ago	-9.13044
▁90	-9.1305
ge	-9.13076
▁zombies	-9.13647
4	-9.13681
What	-9.13755
▁others	-9.13814
▁ask	-9.13871
▁mostly	-9.14029
▁post	-9.14272
▁m	-9.14334
▁imagine	-9.14559
▁bored	-9.14589
▁typical	-9.14609
!!	-9.14636
▁Michael	-9.14661
▁Unfortunately	-9.14738
be	-9.14793
▁eyes	-9.14835
▁feature	-9.15025
▁ten	-9.15057
de	-9.15075
▁villain	-9.1565
time	-9.15758
▁experience	-9.15896
▁words	-9.15938
▁fire	-9.16161
▁excellent	-9.16197
▁somehow	-9.16262
▁forced	-9.16466
▁V	-9.16797
▁falls	-9.16921
▁level	-9.16978
which	-9.17062
▁co	-9.17132
▁pass	-9.1731
▁check	-9.17343
▁whe	-9.1751
so	-9.17517
ner	-9.17593
▁problems	-9.1779
▁attention	-9.17844
▁excuse	-9.17849
▁chance	-9.17849
▁New	-9.17854
▁Robert	-9.17892
age	-9.17938
credibly	-9.18016
▁Bad	-9.18028
▁apparently	-9.18034
▁sci	-9.18301
▁age	-9.18316
▁Do	-9.18443
Y	-9.18444
▁shooting	-9.18526
ian	-9.18556
▁total	-9.18797
▁An	-9.19114
ow	-9.19149
▁Re	-9.19222
by	-9.19241
▁f	-9.19291
▁release	-9.19303
▁throw	-9.19364
▁sometimes	-9.1955
▁strong	-9.19581
▁editing	-9.19607
▁While	-9.19619
▁utter	-9.19637
▁gone	-9.19686
▁God	-9.19818
▁forward	-9.19907
▁Be	-9.19919
▁needs	-9.2
▁novel	-9.20397
▁island	-9.20445
▁minute	-9.20588
if	-9.2093
ate	-9.21091
▁haven	-9.21183
▁sick	-9.21261
▁amount	-9.21284
ut	-9.21329
▁among	-9.21333
▁overall	-9.21333
▁thriller	-9.2138
▁doubt	-9.21381
▁Or	-9.21573
ol	-9.21591
▁fall	-9.21762
▁direct	-9.21892
▁upon	-9.21944
ard	-9.21984
▁rip	-9.22009
▁taken	-9.22011
ton	-9.22026
As	-9.22047
!!!	-9.22186
▁garbage	-9.23018
▁footage	-9.23056
▁despi	-9.23175
▁finally	-9.23457
▁appears	-9.23497
▁ex	-9.23777
▁gay	-9.23803
▁twist	-9.24223
▁happens	-9.24484
op	-9.24584
▁weird	-9.24609
▁St	-9.24736
taking	-9.24749
▁gang	-9.24826
▁NOT	-9.24873
▁please	-9.24882
▁hair	-9.24893
▁flat	-9.25081
▁lives	-9.25097
ance	-9.25128
To	-9.25137
▁fill	-9.25282
▁explain	-9.25334
off	-9.25375
▁hop	-9.25494
▁finish	-9.26063
▁15	-9.26137
▁present	-9.26165
▁wait	-9.26213
▁writers	-9.26223
ap	-9.26534
▁stories	-9.26624
▁season	-9.26626
▁alone	-9.26628
▁background	-9.26634
▁fake	-9.26642
▁IMDb	-9.26644
▁five	-9.26667
▁David	-9.26691
▁political	-9.26702
▁fast	-9.26702
▁god	-9.26837
▁particularly	-9.26948
▁Sci	-9.27302
▁works	-9.2745
▁cliché	-9.275
U	-9.27719
son	-9.27766
▁value	-9.27841
▁creature	-9.27849
▁previous	-9.28126
x	-9.28132
▁suppose	-9.28196
▁police	-9.28468
▁soundtrack	-9.28496
▁believable	-9.28511
▁Jane	-9.28522
Fi	-9.28546
▁From	-9.28689
▁due	-9.28749
▁career	-9.29056
▁holes	-9.29379
ical	-9.29396
for	-9.29547
▁needed	-9.29647
▁shock	-9.29799
▁hardly	-9.29879
line	-9.30065
▁nor	-9.30106
▁accent	-9.30361
▁water	-9.30364
▁Van	-9.304
▁third	-9.30428
▁Who	-9.30451
▁crew	-9.3047
▁Most	-9.30483
▁failed	-9.30518
▁d	-9.30793
▁hot	-9.31016
▁speak	-9.31088
▁stand	-9.31113
om	-9.31427
unless	-9.31754
▁heart	-9.31922
▁actual	-9.31957
▁Bo	-9.32009
go	-9.32121
▁known	-9.32246
▁whatsoever	-9.32283
▁modern	-9.32338
ma	-9.32339
▁reality	-9.32459
▁including	-9.32491
even	-9.32507
▁g	-9.32508
!)	-9.32569
▁decided	-9.3264
ag	-9.32863
▁Let	-9.32896
▁cause	-9.32933
9	-9.33254
side	-9.33328
▁result	-9.33614
▁effect	-9.33681
▁Christian	-9.33725
▁sets	-9.33856
ha	-9.33902
▁dis	-9.3394
▁strange	-9.34064
▁laughing	-9.34116
▁Italian	-9.34284
▁count	-9.34332
▁list	-9.34364
▁copy	-9.34597
▁clearly	-9.34722
▁Che	-9.34862
▁chase	-9.35491
nd	-9.35637
giving	-9.357
ex	-9.35934
▁agree	-9.35959
▁means	-9.35984
un	-9.36099
▁English	-9.36245
▁favorite	-9.36248
▁normal	-9.36249
▁disappointing	-9.36273
▁okay	-9.36284
▁wall	-9.36314
▁barely	-9.36323
▁laughable	-9.36393
V	-9.36394
▁body	-9.36416
▁Lee	-9.36461
▁considering	-9.37055
▁killing	-9.37091
▁elements	-9.37327
▁dress	-9.37392
▁begin	-9.37862
▁credit	-9.379
▁certain	-9.37945
ger	-9.38071
▁Sandra	-9.38285
▁vote	-9.38287
▁sister	-9.38289
▁Instead	-9.3831
ism	-9.38332
▁creepy	-9.38333
▁entertainment	-9.38347
▁front	-9.38375
▁storyline	-9.38423
▁unfortunately	-9.38428
▁free	-9.38447
ng	-9.38452
▁oh	-9.38636
▁released	-9.38639
led	-9.38831
pe	-9.38894
▁con	-9.39047
▁ship	-9.39071
▁filmmakers	-9.39522
▁attempts	-9.39581
ke	-9.39603
who	-9.39606
▁situation	-9.39915
▁sequence	-9.3992
way	-9.39944
▁w	-9.3997
▁similar	-9.40001
▁sexual	-9.40034
▁realize	-9.40171
▁power	-9.4027
▁possibly	-9.40368
▁potential	-9.40368
▁television	-9.40368
▁Jones	-9.40377
▁James	-9.40442
▁Although	-9.4058
▁produced	-9.40583
▁follow	-9.41001
▁Hell	-9.41108
▁Y	-9.41665
ized	-9.41946
▁eye	-9.42119
▁song	-9.42447
▁nudity	-9.42496
▁project	-9.42497
▁crime	-9.42498
▁admit	-9.42499
▁wooden	-9.42504
▁girlfriend	-9.42505
▁pure	-9.42506
▁fell	-9.42523
▁concept	-9.42545
▁whatever	-9.42599
▁Every	-9.42638
▁30	-9.42707
▁points	-9.43208
▁fighting	-9.43487
movie	-9.43509
▁enjoyed	-9.43647
▁Co	-9.43992
ta	-9.44163
▁producers	-9.4434
▁four	-9.44646
▁easily	-9.4467
▁various	-9.4467
▁disappointment	-9.44671
▁paid	-9.44675
▁purpose	-9.44683
▁7	-9.44685
▁Dead	-9.4469
▁super	-9.44711
▁thin	-9.44718
▁slightly	-9.44756
▁redeeming	-9.44767
▁change	-9.44781
▁outside	-9.44939
▁bed	-9.44939
▁missing	-9.45037
▁catch	-9.45042
▁events	-9.45154
▁simple	-9.45166
▁reasons	-9.45172
pa	-9.45541
▁Ver	-9.45601
ub	-9.4579
▁ends	-9.46007
▁acted	-9.4602
▁kick	-9.46039
▁leading	-9.4612
▁party	-9.46319
▁pro	-9.46332
▁eat	-9.46511
oo	-9.46856
▁difficult	-9.46892
▁CGI	-9.46892
▁odd	-9.46894
▁caught	-9.46898
▁blame	-9.46899
▁compare	-9.46905
▁slasher	-9.46952
▁forget	-9.47132
ck	-9.47297
mo	-9.47327
istic	-9.47543
▁rented	-9.47682
▁entirely	-9.47815
ho	-9.47849
all	-9.47956
▁named	-9.48026
▁door	-9.48162
8	-9.48273
▁sucks	-9.48524
▁perfect	-9.48788
▁By	-9.48824
▁painful	-9.48826
im	-9.48862
▁brain	-9.48863
▁create	-9.4893
les	-9.4897
▁became	-9.49165
▁giant	-9.49165
▁parents	-9.49165
king	-9.49184
▁wrote	-9.49193
▁male	-9.49224
men	-9.49282
em	-9.49297
▁quickly	-9.49326
▁Watch	-9.4942
▁roles	-9.49443
▁laughs	-9.49644
land	-9.49852
we	-9.49967
▁cr	-9.5024
▁6	-9.50354
▁murder	-9.50385
")	-9.5043
▁sounds	-9.50472
▁bar	-9.5067
ain	-9.50703
▁deliver	-9.50719
▁hands	-9.5089
▁reading	-9.51139
All	-9.51169
▁relationship	-9.51207
▁important	-9.51243
▁demon	-9.51353
▁road	-9.51494
▁respect	-9.51498
▁deep	-9.51519
▁anymore	-9.51522
▁Nothing	-9.51626
▁Star	-9.5171
▁focus	-9.51727
dy	-9.51879
▁19	-9.52142
▁showing	-9.5232
▁land	-9.52368
bo	-9.52468
▁mentioned	-9.52557
▁Dr	-9.52739
▁names	-9.52768
You	-9.53088
▁knows	-9.53123
▁class	-9.53189
▁ride	-9.53212
ably	-9.53286
▁fl	-9.53297
▁particular	-9.5353
▁hilarious	-9.53561
▁German	-9.53592
▁standard	-9.53817
▁business	-9.53853
▁treat	-9.53865
▁atmosphere	-9.53871
▁choice	-9.53871
▁wild	-9.53871
▁team	-9.53872
▁Bullock	-9.53872
▁future	-9.53874
▁70	-9.53878
▁development	-9.53883
▁screenplay	-9.53883
▁herself	-9.53885
▁steal	-9.53893
▁stick	-9.53897
▁unbelievable	-9.53916
▁period	-9.53919
▁intended	-9.53972
▁rock	-9.54045
▁songs	-9.54325
▁woods	-9.54407
5	-9.54465
▁Her	-9.54492
io	-9.54609
ring	-9.5463
1	-9.54849
co	-9.55297
▁bigge	-9.55359
that	-9.55833
▁surprise	-9.55988
▁deserves	-9.56131
tro	-9.56202
▁channel	-9.5631
▁common	-9.56313
▁disaster	-9.56323
▁adaptation	-9.5633
My	-9.56363
▁viewers	-9.56379
▁setting	-9.56386
▁moving	-9.56407
▁phone	-9.56418
ot	-9.56498
▁control	-9.56546
▁surprised	-9.56592
der	-9.56879
▁remind	-9.56882
▁pre	-9.56927
na	-9.56975
▁directing	-9.5711
▁musical	-9.57147
▁makers	-9.57182
nother	-9.57414
▁j	-9.57637
▁meant	-9.5775
▁open	-9.5775
▁beat	-9.57761
▁today	-9.57848
vi	-9.57931
▁note	-9.58185
▁comic	-9.58269
os	-9.58323
▁escape	-9.58718
▁ghost	-9.58765
▁Flynn	-9.5881
▁country	-9.58818
red	-9.58822
▁Japanese	-9.58842
▁accident	-9.58861
▁build	-9.58961
▁members	-9.59051
▁Like	-9.59086
▁building	-9.59376
ER	-9.59525
▁walking	-9.59721
▁filmed	-9.59748
▁clichés	-9.59755
▁expecting	-9.60316
old	-9.60531
budget	-9.6059
ure	-9.60904
▁Ch	-9.60942
▁positive	-9.61014
▁recent	-9.61054
▁working	-9.61102
▁per	-9.61123
erhaps	-9.61297
▁color	-9.61358
▁neither	-9.61374
▁living	-9.61374
▁Eddie	-9.61375
▁amusing	-9.61375
▁confusing	-9.61375
▁crappy	-9.61377
▁French	-9.61384
▁clever	-9.61398
▁military	-9.61406
▁violent	-9.61426
▁Mar	-9.61461
▁cult	-9.61487
▁mark	-9.61557
ep	-9.61665
▁Yes	-9.61668
▁portrayed	-9.61812
▁Here	-9.62712
▁Al	-9.63018
▁Mi	-9.63045
▁view	-9.63088
ial	-9.63366
▁meets	-9.63476
▁destroy	-9.63512
ake	-9.63709
ary	-9.63737
J	-9.63791
▁ho	-9.63826
▁drive	-9.63874
▁allow	-9.63962
▁MST	-9.63971
▁secret	-9.64001
▁church	-9.64006
▁dreadful	-9.64006
▁amateurish	-9.64016
▁stuck	-9.64017
▁Horror	-9.64038
▁Himesh	-9.64059
▁mere	-9.64064
▁theater	-9.64073
▁nowhere	-9.64076
▁documentary	-9.64081
▁Richard	-9.64104
▁student	-9.64128
▁area	-9.64218
▁thrown	-9.64285
▁folks	-9.64321
▁changed	-9.64474
▁wonderful	-9.64517
uff	-9.6452
▁win	-9.64692
▁Me	-9.64804
▁interested	-9.64971
lie	-9.65205
▁apart	-9.65289
ball	-9.65897
▁mix	-9.6622
▁attack	-9.66375
▁include	-9.66424
▁deserve	-9.6662
▁Disney	-9.66709
▁brilliant	-9.66709
▁revenge	-9.66709
▁spoof	-9.66709
▁Channel	-9.6671
▁tension	-9.6671
▁conclusion	-9.6671
▁earlier	-9.66715
▁impossible	-9.66723
▁Pinhead	-9.66742
▁Lombard	-9.66763
▁portrayal	-9.66788
▁suit	-9.668
▁Indian	-9.66847
▁loud	-9.66854
▁cross	-9.66854
ack	-9.66965
▁victim	-9.66982
▁fit	-9.67047
▁trouble	-9.67132
light	-9.67185
▁leaves	-9.67234
▁towards	-9.67545
tion	-9.67561
▁values	-9.67732
ese	-9.67779
▁happening	-9.67829
▁Go	-9.67987
▁teenagers	-9.68116
▁features	-9.68263
Well	-9.6875
▁directors	-9.68999
▁general	-9.69144
▁t	-9.69169
▁suggest	-9.69185
▁state	-9.69364
che	-9.69463
▁Bishop	-9.69486
▁floor	-9.69487
▁plenty	-9.69488
day	-9.69523
▁otherwise	-9.69531
▁tale	-9.6954
▁priest	-9.69543
▁mis	-9.69557
▁Wood	-9.69561
▁somewhere	-9.69567
▁dramatic	-9.69596
▁skip	-9.69662
▁send	-9.6967
▁interview	-9.6975
▁flicks	-9.69797
making	-9.69903
ating	-9.69957
▁anti	-9.70129
▁Ma	-9.70275
▁died	-9.70414
▁Can	-9.70461
▁skin	-9.70585
ated	-9.70763
▁pain	-9.70818
▁worked	-9.71269
▁within	-9.71367
▁animals	-9.7138
Oh	-9.71657
▁mine	-9.71741
▁portray	-9.71774
this	-9.71923
▁loose	-9.71988
▁pace	-9.72056
▁par	-9.72331
▁remote	-9.72344
▁shark	-9.72344
▁suicide	-9.72344
▁embarrassing	-9.72344
▁turkey	-9.72344
▁happy	-9.72348
▁saving	-9.7235
▁indeed	-9.72353
▁sell	-9.72391
▁unnecessary	-9.72395
▁George	-9.72402
▁boyfriend	-9.72431
▁suddenly	-9.72448
▁literally	-9.7246
▁protagonist	-9.72488
▁Please	-9.7254
▁ground	-9.72567
▁sign	-9.72691
▁sat	-9.7288
▁sequences	-9.72964
uit	-9.73097
▁po	-9.73331
▁lighting	-9.73422
▁9	-9.7345
▁inside	-9.74005
well	-9.74024
va	-9.74429
work	-9.74461
ile	-9.74469
▁Pa	-9.74558
ight	-9.74608
▁loved	-9.74697
For	-9.74724
Don	-9.74801
▁mo	-9.74825
▁ended	-9.74839
▁shame	-9.75068
ac	-9.75254
▁taste	-9.75259
▁moves	-9.75272
▁bizarre	-9.75285
▁computer	-9.75285
▁FBI	-9.75285
▁depth	-9.75285
▁promise	-9.75285
▁propaganda	-9.75285
▁window	-9.75291
▁bomb	-9.75319
▁cinematic	-9.75324
▁battle	-9.75338
▁lady	-9.75351
▁stock	-9.75376
▁easy	-9.75392
▁Randy	-9.75419
▁master	-9.75441
▁Steven	-9.75458
▁mistake	-9.7546
rs	-9.75645
▁generally	-9.75649
▁producer	-9.7583
0	-9.75844
▁10.	-9.76157
▁truth	-9.7619
▁waiting	-9.76215
▁rated	-9.76255
▁added	-9.76359
▁episodes	-9.76369
▁describe	-9.76432
com	-9.77
ant	-9.77167
right	-9.77402
▁serve	-9.77431
▁cute	-9.77627
ence	-9.77811
▁honest	-9.77971
▁plan	-9.78054
▁discover	-9.78068
▁further	-9.78169
▁approach	-9.78315
▁convince	-9.78315
▁eventually	-9.78315
▁franchise	-9.78315
▁historical	-9.78315
▁pretentious	-9.78315
+	-9.78315
▁presence	-9.78315
▁tree	-9.78317
▁serial	-9.78319
▁collection	-9.78329
▁Yet	-9.78336
▁fashion	-9.78353
▁romantic	-9.78401
▁Christmas	-9.78401
▁whom	-9.78403
▁successful	-9.78403
▁enjoyable	-9.78421
▁Vacation	-9.78426
▁damn	-9.78469
▁William	-9.78485
nce	-9.78523
▁Where	-9.78524
▁form	-9.7867
▁created	-9.78693
▁NO	-9.78708
▁week	-9.78899
▁alive	-9.7908
▁creatures	-9.79463
over	-9.79608
▁rate	-9.79734
Overall	-9.80647
ber	-9.80826
ph	-9.80854
▁monsters	-9.80896
▁La	-9.81339
▁crash	-9.8138
▁personal	-9.81424
▁favor	-9.81434
▁York	-9.8144
▁answer	-9.8144
▁drink	-9.8144
▁humour	-9.8144
▁imagination	-9.8144
▁immediately	-9.8144
▁smart	-9.8144
▁language	-9.8144
▁Black	-9.81442
▁masterpiece	-9.81442
▁glad	-9.81447
▁desperate	-9.8145
▁insane	-9.81453
▁Carol	-9.81457
▁appearance	-9.81468
▁disgusting	-9.81522
▁ultimately	-9.81522
▁Chupacabra	-9.81529
▁Two	-9.81554
▁truck	-9.81555
▁search	-9.81602
ite	-9.8162
▁rich	-9.81647
▁meet	-9.81902
ley	-9.8192
▁makeup	-9.82015
▁extra	-9.8203
▁question	-9.82043
ina	-9.82179
▁begins	-9.82209
con	-9.82213
▁Overall	-9.82243
▁Tom	-9.82256
▁following	-9.82288
▁teen	-9.82396
▁older	-9.82436
ah	-9.8246
▁involv	-9.82488
▁!	-9.82767
▁references	-9.82798
▁sexy	-9.82825
mp	-9.82853
6	-9.82944
end	-9.83198
▁push	-9.8342
▁cops	-9.83593
some	-9.83871
▁suffer	-9.8408
▁sleep	-9.84085
ever	-9.84178
▁convincing	-9.84302
▁brief	-9.84306
▁random	-9.84309
▁faces	-9.84313
▁victims	-9.84431
▁students	-9.84517
▁basic	-9.84651
▁Smith	-9.84665
▁Oscar	-9.84666
▁advice	-9.84666
▁blue	-9.84666
▁cartoon	-9.84666
▁company	-9.84666
▁exciting	-9.84666
▁naked	-9.84666
▁unintentional	-9.84668
▁popular	-9.84668
▁shallow	-9.84668
▁animation	-9.84668
▁machine	-9.84669
▁baby	-9.84674
▁fear	-9.84675
▁Kane	-9.84676
que	-9.8468
▁studio	-9.84686
▁paper	-9.84696
▁bright	-9.84703
▁mystery	-9.84706
▁1980	-9.84708
▁nobody	-9.84728
▁listen	-9.84742
▁display	-9.84757
▁yeah	-9.84758
▁telling	-9.84763
▁confused	-9.84791
▁Asian	-9.84792
▁plane	-9.84802
▁former	-9.84809
▁Director	-9.84845
▁60	-9.8487
▁realistic	-9.8488
ual	-9.85164
▁viewing	-9.85372
▁situations	-9.85375
cy	-9.85464
▁lived	-9.8547
▁vampire	-9.85475
▁mom	-9.85575
▁shocking	-9.85745
▁stereotypes	-9.85832
ious	-9.85867
▁ill	-9.85962
▁red	-9.85996
▁casting	-9.86189
ud	-9.86329
▁Ho	-9.86336
▁Dam	-9.86405
she	-9.86417
uck	-9.8657
▁o	-9.86654
▁remains	-9.86713
▁v	-9.8689
ang	-9.86911
▁40	-9.87052
action	-9.87213
good	-9.87224
▁Christ	-9.87247
Now	-9.87261
▁lots	-9.87356
rate	-9.87389
guy	-9.87395
▁opera	-9.87593
mon	-9.87605
▁exist	-9.8762
▁uses	-9.87765
coming	-9.87769
▁Steve	-9.87821
▁di	-9.87853
uch	-9.87861
▁America	-9.87863
pi	-9.87866
▁lose	-9.8794
ING	-9.87992
▁nonsense	-9.87999
▁public	-9.87999
▁Carrey	-9.87999
▁Guy	-9.88
▁rare	-9.88006
▁assume	-9.88008
▁impression	-9.88014
▁record	-9.88032
▁Kim	-9.88041
▁carry	-9.88063
▁fantasy	-9.88094
▁plus	-9.88094
▁Paul	-9.88112
▁Russian	-9.88123
▁Other	-9.88206
▁Zombie	-9.8823
▁Komodo	-9.88257
▁famous	-9.88257
▁ch	-9.88279
▁grat	-9.88356
▁recently	-9.8845
▁soap	-9.88468
▁Z	-9.88486
▁clichéd	-9.88515
ble	-9.88747
▁dream	-9.88824
▁location	-9.88847
ward	-9.88896
dom	-9.88995
▁leader	-9.89068
▁touch	-9.89076
▁hated	-9.89293
▁renting	-9.89399
ong	-9.89949
▁King	-9.9021
▁offer	-9.90425
what	-9.90472
`	-9.9065
▁hang	-9.90887
▁miss	-9.91024
our	-9.91116
▁base	-9.91221
▁Bill	-9.91351
▁leav	-9.91403
▁Earth	-9.91447
▁Lewis	-9.91447
▁century	-9.91447
▁genuine	-9.91447
▁hundred	-9.91447
▁mediocre	-9.91447
▁visit	-9.91447
▁drunk	-9.91448
▁sheriff	-9.91448
▁Martin	-9.91448
▁rubbish	-9.91456
▁regard	-9.9146
▁fift	-9.91462
▁clothes	-9.91462
▁science	-9.9147
▁heroine	-9.91489
▁tired	-9.91512
▁social	-9.91514
▁OF	-9.91516
▁manner	-9.91562
▁soft	-9.91589
▁Cave	-9.91626
▁Avoid	-9.91686
▁Good	-9.9173
een	-9.91733
▁suck	-9.91851
▁Mary	-9.91858
art	-9.91859
▁mad	-9.91939
▁hat	-9.91988
▁missed	-9.92012
▁sn	-9.9208
▁pi	-9.92128
ned	-9.92211
▁fr	-9.92335
▁longer	-9.92371
▁exception	-9.92393
▁scientist	-9.92411
cal	-9.92445
▁8	-9.92556
tte	-9.92603
▁Ha	-9.92614
▁50	-9.92646
▁Po	-9.92976
▁Mc	-9.93091
lic	-9.93229
▁wondering	-9.9337
use	-9.93704
▁spot	-9.93812
ky	-9.93938
▁burn	-9.93986
▁ideas	-9.94115
par	-9.94117
ave	-9.94197
**	-9.94235
film	-9.94236
director	-9.94242
▁prison	-9.94338
▁Mo	-9.9439
▁force	-9.94647
room	-9.94656
▁insult	-9.94682
▁pop	-9.94714
▁shop	-9.9475
▁consist	-9.94852
▁leads	-9.94878
▁porn	-9.94939
▁Cobb	-9.95019
▁fault	-9.95019
▁grace	-9.95019
▁innocent	-9.95019
▁join	-9.95019
▁Moore	-9.95019
▁account	-9.95019
▁combin	-9.95019
▁suspect	-9.95019
▁Brown	-9.9502
▁ashamed	-9.9502
▁nature	-9.95022
▁mood	-9.95024
▁tough	-9.95026
▁match	-9.9503
▁culture	-9.95031
▁cash	-9.95039
▁responsible	-9.9504
▁Ride	-9.95115
▁photography	-9.9512
▁Jack	-9.95132
▁era	-9.95142
▁mid	-9.95152
▁****	-9.95179
▁limited	-9.95224
▁band	-9.95283
back	-9.95287
▁fat	-9.95302
ca	-9.95323
▁starring	-9.95333
▁yes	-9.95342
▁Reba	-9.95362
▁murders	-9.95369
▁below	-9.95407
▁honestly	-9.95427
▁Sant	-9.95632
lan	-9.95865
▁scare	-9.95892
you	-9.96062
?!	-9.96215
▁books	-9.96352
▁issue	-9.96394
▁Sam	-9.96491
▁involve	-9.96641
ide	-9.96695
long	-9.96862
▁paint	-9.96998
▁ha	-9.97145
▁lacking	-9.97205
ped	-9.97279
ak	-9.97401
mit	-9.97751
year	-9.97939
with	-9.97956
▁struggle	-9.9799
▁laughed	-9.98007
▁develop	-9.98214
bad	-9.98269
▁prefer	-9.98326
▁arts	-9.98418
▁appreciate	-9.98428
▁torture	-9.98491
pite	-9.98495
▁step	-9.98536
On	-9.98582
▁million	-9.98714
▁spirit	-9.98717
▁Little	-9.98723
▁accurate	-9.98723
▁amazing	-9.98723
▁college	-9.98723
▁knowledge	-9.98723
▁martial	-9.98723
▁twenty	-9.98723
▁affair	-9.98723
▁society	-9.98723
▁content	-9.98723
▁research	-9.98723
▁freak	-9.98728
▁Julie	-9.98731
▁share	-9.98734
▁information	-9.98734
▁idiotic	-9.98739
▁cold	-9.98747
▁Hopper	-9.98799
▁Otherwise	-9.98802
▁familiar	-9.98829
gen	-9.98923
▁Master	-9.98925
▁Film	-9.98929
▁drug	-9.99005
ize	-9.99055
how	-9.99081
tra	-9.992
???	-9.99243
▁jump	-9.99294
▁changes	-9.99362
▁younger	-9.99549
▁comical	-9.99572
▁figured	-9.99601
▁street	-9.99904
▁animal	-9.99992
low	-10.0005
ob	-10.0006
▁N	-10.0092
▁highly	-10.0093
▁runs	-10.0101
▁efforts	-10.0105
▁Too	-10.0105
▁costs	-10.0108
7	-10.0117
▁bear	-10.0136
▁Sh	-10.0147
▁vs	-10.0166
screen	-10.0172
▁wasting	-10.0175
▁questions	-10.0179
▁rescue	-10.0188
▁cant	-10.019
rew	-10.0192
▁Er	-10.0196
▁appeal	-10.0199
row	-10.0204
▁Sure	-10.0248
▁chick	-10.0254
▁crazy	-10.0257
▁hospital	-10.0257
▁industry	-10.0257
▁teeth	-10.0257
▁wrestling	-10.0257
▁horse	-10.0257
British	-10.0257
▁graphic	-10.0257
▁explanation	-10.0257
▁cheese	-10.0257
▁device	-10.0257
▁failure	-10.0257
▁intelligent	-10.0258
▁unoriginal	-10.0258
▁unfunny	-10.0258
▁curious	-10.026
▁religious	-10.0262
▁sitting	-10.0264
▁hire	-10.0264
%	-10.0264
▁Love	-10.0265
▁mysterious	-10.0265
▁possessed	-10.0272
▁professional	-10.0274
▁absurd	-10.0275
▁worthless	-10.0275
▁Hellraiser	-10.028
▁ability	-10.0284
▁grade	-10.029
▁brutal	-10.0291
▁greatest	-10.0292
▁sucked	-10.0311
▁l	-10.0313
▁sl	-10.0322
▁watchable	-10.0324
▁Bell	-10.0342
fe	-10.0356
▁?	-10.0366
▁angles	-10.0376
▁ball	-10.0381
lin	-10.0382
▁puppets	-10.0397
▁talented	-10.0405
putting	-10.0427
▁details	-10.0447
▁cat	-10.0448
▁camp	-10.046
gi	-10.052
▁theme	-10.0529
▁issues	-10.0533
▁vampires	-10.0565
▁perform	-10.0576
One	-10.0609
atch	-10.063
ny	-10.0636
▁draw	-10.0639
▁aim	-10.064
▁connect	-10.0652
▁amateur	-10.0655
▁office	-10.0656
▁author	-10.0656
▁Belushi	-10.0657
▁dancing	-10.0657
▁miserably	-10.0657
▁terribly	-10.0657
▁Jeff	-10.0657
▁doctor	-10.0657
▁encounter	-10.0657
▁heavy	-10.0657
▁tedious	-10.0657
▁angry	-10.0657
▁knock	-10.0657
▁swear	-10.0657
▁Bates	-10.0657
▁Hogan	-10.0657
▁promising	-10.0659
▁everybody	-10.0659
▁Dante	-10.0659
▁Vince	-10.0659
▁statement	-10.066
▁notice	-10.066
No	-10.0661
▁fish	-10.0664
▁Halloween	-10.0665
▁trailer	-10.0666
▁Lu	-10.0667
▁corny	-10.0668
▁Thank	-10.0669
▁Peter	-10.0681
▁motion	-10.0682
▁bi	-10.0695
▁fu	-10.0702
▁Kath	-10.0712
ew	-10.0717
iss	-10.0721
▁forever	-10.0722
!!!!	-10.0722
▁weapons	-10.0749
▁`	-10.075
▁remain	-10.0764
▁sadly	-10.0771
▁th	-10.0776
▁speaking	-10.0779
▁mouth	-10.0786
TV	-10.0788
▁soldiers	-10.0803
rated	-10.0809
▁Car	-10.081
▁alien	-10.0812
▁cost	-10.0826
▁ready	-10.0829
ions	-10.0834
▁contains	-10.0836
▁Anne	-10.0843
▁onto	-10.0848
▁aspects	-10.0857
ST	-10.086
▁dad	-10.089
ise	-10.0899
▁Dor	-10.0902
00	-10.0904
▁boys	-10.0907
▁likely	-10.0908
▁reach	-10.0971
▁logic	-10.0993
▁Ro	-10.1002
▁bu	-10.1014
fully	-10.1022
▁Des	-10.1027
mar	-10.1033
▁correct	-10.1038
▁stage	-10.1047
▁survive	-10.1049
▁inter	-10.105
▁More	-10.1054
▁wide	-10.1057
▁success	-10.1058
ster	-10.1063
▁dance	-10.1064
▁clue	-10.1071
turned	-10.1072
é	-10.1074
▁bottom	-10.1074
▁empty	-10.1074
▁government	-10.1074
▁horribly	-10.1074
▁irritating	-10.1074
▁ludicrous	-10.1074
▁qualities	-10.1074
▁separate	-10.1074
▁gonna	-10.1074
▁asleep	-10.1074
▁Larry	-10.1074
▁grave	-10.1074
▁narrative	-10.1074
othy	-10.1074
▁Scott	-10.1075
▁earth	-10.1076
▁track	-10.1076
▁Cujo	-10.1079
▁movement	-10.108
▁cutting	-10.1081
▁Seriously	-10.1082
▁married	-10.1083
▁Everything	-10.1083
▁blonde	-10.1084
▁adventure	-10.1085
▁fiction	-10.1085
▁station	-10.1085
▁teacher	-10.1086
▁bra	-10.1087
▁Because	-10.1089
▁Jr	-10.1097
▁Mark	-10.1097
▁gory	-10.1098
nnis	-10.1099
▁standards	-10.1101
▁Look	-10.1101
da	-10.1105
ach	-10.1105
▁law	-10.1111
▁Texas	-10.1113
▁singing	-10.1114
▁prove	-10.1114
ign	-10.1114
▁meaning	-10.1119
▁heck	-10.1122
▁Anyway	-10.1127
▁South	-10.1128
ock	-10.1134
▁mental	-10.1145
▁forth	-10.1147
▁allowed	-10.1152
▁("	-10.1183
star	-10.1187
▁ma	-10.1204
▁asked	-10.1205
don	-10.1207
ba	-10.1219
▁100	-10.1243
rol	-10.1247
▁lies	-10.1274
ze	-10.1305
▁worthy	-10.1319
Not	-10.132
▁Cr	-10.1322
▁pieces	-10.133
set	-10.1339
▁sc	-10.134
Be	-10.1355
▁tie	-10.1357
▁ba	-10.1381
▁guns	-10.1381
just	-10.1432
▁ran	-10.1448
part	-10.1449
▁reveal	-10.1459
ern	-10.1464
▁Les	-10.147
▁member	-10.1473
▁apparent	-10.1474
ound	-10.1492
▁range	-10.1497
▁whi	-10.1499
▁Charl	-10.1499
▁awkward	-10.1508
▁energy	-10.1508
▁experiment	-10.1508
▁strength	-10.1508
▁Park	-10.1508
▁lousy	-10.1508
▁desert	-10.1508
▁frankly	-10.1508
▁double	-10.1508
▁facial	-10.1508
▁moral	-10.1509
▁Cobra	-10.1509
▁worry	-10.1509
▁Norman	-10.1509
▁blah	-10.1509
▁six	-10.151
▁raise	-10.151
▁ANY	-10.1512
▁disturbing	-10.1512
▁bland	-10.1513
▁Anthon	-10.1514
▁forgettable	-10.1514
▁artistic	-10.1515
▁stinker	-10.1516
▁bodies	-10.1517
▁eaten	-10.1517
▁test	-10.1518
▁nasty	-10.1521
▁Big	-10.1524
▁mindless	-10.1526
▁attractive	-10.1526
▁People	-10.1528
▁shadow	-10.1532
▁Okay	-10.1535
▁sent	-10.1536
▁City	-10.1537
▁forgotten	-10.1544
ED	-10.1545
▁rise	-10.1554
▁scared	-10.1571
bi	-10.1572
od	-10.1579
too	-10.1583
▁Di	-10.1592
▁follows	-10.1598
ron	-10.1601
▁emotion	-10.161
▁18	-10.1611
ov	-10.1617
▁flaws	-10.1621
▁sea	-10.1623
Do	-10.1624
▁finished	-10.1628
▁stretch	-10.1629
▁ta	-10.163
▁saved	-10.1642
▁slowly	-10.1648
▁lo	-10.1659
▁standing	-10.1663
▁Sa	-10.1686
▁western	-10.1695
▁cliche	-10.1698
ash	-10.1699
▁Ne	-10.1712
▁Ja	-10.172
vy	-10.1728
▁min	-10.1729
▁Chan	-10.1731
▁filmmaker	-10.1732
▁terms	-10.174
ki	-10.1767
▁mini	-10.1793
??	-10.1794
▁r	-10.1802
▁en	-10.1809
▁tape	-10.1814
▁da	-10.1819
ities	-10.1822
cut	-10.1826
held	-10.1841
▁helped	-10.1856
We	-10.1856
ook	-10.1873
Why	-10.1884
▁capabl	-10.189
pic	-10.19
EN	-10.1901
▁charm	-10.1908
▁accept	-10.191
▁drag	-10.1911
ving	-10.1932
▁junk	-10.1934
ommy	-10.1945
▁travel	-10.1959
▁occur	-10.1962
▁psycho	-10.1963
har	-10.1963
▁Sheriff	-10.1963
▁atrocious	-10.1963
▁chemistry	-10.1963
▁comparison	-10.1963
▁disjointed	-10.1963
▁driving	-10.1963
▁jungle	-10.1963
▁length	-10.1963
▁physical	-10.1963
▁unconvincing	-10.1963
▁blind	-10.1963
Which	-10.1963
▁green	-10.1963
▁funnies	-10.1963
▁1960	-10.1963
▁available	-10.1963
▁round	-10.1963
▁memorable	-10.1963
▁chair	-10.1964
▁dangerous	-10.1964
▁twice	-10.1964
▁likable	-10.1964
▁inept	-10.1964
▁expectations	-10.1964
▁thus	-10.1965
▁gold	-10.1965
▁Sorry	-10.1965
▁dozen	-10.1966
▁highlight	-10.1968
▁minor	-10.197
▁sight	-10.1972
▁somebody	-10.1973
▁None	-10.1977
▁guard	-10.1977
▁X	-10.1981
▁Dark	-10.1981
▁leg	-10.1982
▁biker	-10.1983
▁feet	-10.1985
▁rental	-10.1991
▁12	-10.1992
▁began	-10.1993
▁Any	-10.1999
▁reporter	-10.2007
▁endless	-10.201
▁ways	-10.2016
used	-10.2016
ax	-10.2017
▁Gi	-10.2021
▁Bone	-10.204
▁tend	-10.2041
ff	-10.2052
▁emotional	-10.2055
ika	-10.2064
▁skills	-10.2068
ice	-10.2069
▁Give	-10.2081
▁grow	-10.2093
▁lower	-10.2098
ass	-10.2108
▁scream	-10.2116
▁learned	-10.212
IN	-10.2125
▁visual	-10.2135
▁cla	-10.2168
▁element	-10.2182
filled	-10.2196
▁spoiler	-10.2205
▁earn	-10.2222
▁smoke	-10.2238
▁places	-10.2265
▁soul	-10.2268
ible	-10.227
▁lacks	-10.2283
▁dies	-10.2297
▁Vi	-10.2305
▁introduce	-10.2316
▁overly	-10.2328
▁roll	-10.2335
rd	-10.2337
life	-10.2363
Some	-10.2364
▁drop	-10.2368
▁tone	-10.2372
▁spoil	-10.238
▁finding	-10.2391
my	-10.2391
▁quick	-10.2405
▁le	-10.2407
▁absolute	-10.2409
air	-10.2411
▁unlike	-10.2414
▁load	-10.2418
▁hasn	-10.2428
cream	-10.243
▁Never	-10.2436
▁Norris	-10.2439
▁Perkins	-10.2439
▁Thomas	-10.2439
▁afraid	-10.2439
▁equal	-10.2439
▁silent	-10.2439
▁system	-10.2439
▁unique	-10.2439
▁thousand	-10.2439
▁amaze	-10.2439
▁climax	-10.2439
▁latter	-10.2439
▁Prey	-10.2439
▁satire	-10.244
▁crude	-10.244
▁steam	-10.244
▁Jason	-10.244
▁continuity	-10.244
▁epic	-10.2441
▁Squad	-10.2441
▁devil	-10.2442
▁boredom	-10.2442
▁cry	-10.2442
▁continue	-10.2442
▁sake	-10.2443
▁centr	-10.2444
▁hotel	-10.2444
▁Jesus	-10.2445
▁creative	-10.2445
▁connection	-10.2445
▁Out	-10.2445
▁Frank	-10.2446
▁abuse	-10.2448
▁current	-10.2449
▁Hannibal	-10.2449
▁army	-10.245
▁speed	-10.245
▁unknown	-10.2451
▁Alien	-10.2453
▁frame	-10.2456
▁45	-10.2457
▁useless	-10.2459
▁ne	-10.246
▁Bruce	-10.2461
▁consistent	-10.2462
▁haunted	-10.2462
▁US	-10.2463
hood	-10.2463
▁lay	-10.2464
▁Angel	-10.2465
▁surprisingly	-10.2469
▁Bu	-10.2488
▁Had	-10.249
▁belong	-10.2494
▁Ca	-10.2496
▁size	-10.251
▁Th	-10.2515
▁Boy	-10.2524
her	-10.2527
▁Ru	-10.254
▁na	-10.2543
▁trappe	-10.2552
▁killers	-10.2605
▁bothered	-10.2617
▁claim	-10.2624
▁dealing	-10.2624
▁term	-10.2633
▁Psycho	-10.2636
▁players	-10.2636
iv	-10.264
oh	-10.2646
▁twists	-10.2653
get	-10.267
cing	-10.2672
▁Le	-10.2673
▁agent	-10.2685
▁teenager	-10.2689
ier	-10.269
▁reviewers	-10.269
▁sp	-10.2703
AN	-10.2704
gs	-10.2704
***	-10.2705
unk	-10.2731
.....	-10.2738
▁bus	-10.2774
▁drugs	-10.2776
can	-10.2782
▁seconds	-10.2782
till	-10.2787
gu	-10.2792
▁blow	-10.2793
▁repeat	-10.2828
ka	-10.283
▁train	-10.2833
ik	-10.2838
▁Ra	-10.2842
▁Has	-10.2847
▁magic	-10.285
ition	-10.2857
However	-10.2861
▁understanding	-10.2865
▁Bar	-10.2866
▁u	-10.2876
▁clean	-10.2879
du	-10.2883
▁fool	-10.2888
gun	-10.2888
▁design	-10.289
▁ruin	-10.2892
▁offers	-10.2893
RE	-10.2896
▁flash	-10.2903
▁extreme	-10.2909
▁trip	-10.2927
▁adapt	-10.2935
ja	-10.2935
▁produce	-10.2935
▁disappear	-10.2938
▁Arnold	-10.2939
▁Captain	-10.2939
▁Quaid	-10.2939
▁Tarzan	-10.2939
▁Witch	-10.2939
▁borrow	-10.2939
▁marriage	-10.2939
▁numerous	-10.2939
▁peace	-10.2939
▁revolve	-10.2939
▁romance	-10.2939
▁stomach	-10.2939
▁choose	-10.2939
▁fantastic	-10.2939
▁fresh	-10.2939
▁flesh	-10.2939
▁Great	-10.2939
▁belief	-10.2939
▁Eater	-10.2939
▁superior	-10.2939
▁REALLY	-10.2939
▁difference	-10.2939
▁opposite	-10.2939
▁ugly	-10.2939
▁recover	-10.294
▁legend	-10.294
▁cobra	-10.294
▁worthwhile	-10.294
▁forgot	-10.294
▁relief	-10.294
▁naive	-10.2941
▁witch	-10.2941
▁seemingly	-10.2941
▁screenwriter	-10.2942
▁pair	-10.2942
▁gags	-10.2942
▁apartment	-10.2943
▁ALL	-10.2944
▁Stephen	-10.2945
▁criminal	-10.2945
▁compelling	-10.2949
▁Apparently	-10.2949
▁cringe	-10.295
▁Chin	-10.295
movies	-10.295
▁cable	-10.2954
▁El	-10.2954
▁Rick	-10.2955
▁cares	-10.2956
▁edited	-10.2957
▁Wow	-10.2959
▁Yeah	-10.2962
▁Sadly	-10.2962
now	-10.2964
▁mildly	-10.2967
▁hide	-10.2968
▁scenery	-10.2969
▁award	-10.297
▁constantly	-10.2972
▁Night	-10.2975
▁stupidity	-10.2975
▁city	-10.2977
ano	-10.2988
▁seek	-10.2999
existent	-10.3
▁See	-10.3003
▁provide	-10.3006
▁wind	-10.3007
▁developed	-10.3025
ken	-10.3025
▁Un	-10.303
▁meeting	-10.3032
▁realized	-10.3035
▁Americans	-10.3036
▁gu	-10.3043
▁delivered	-10.3047
ell	-10.3059
▁explained	-10.3079
▁return	-10.3093
▁audiences	-10.3104
real	-10.3105
▁falling	-10.3108
▁wit	-10.312
▁Ms	-10.3139
bu	-10.3154
kin	-10.3157
▁Com	-10.3166
▁War	-10.3177
▁gl	-10.3179
▁expression	-10.3207
▁agents	-10.3207
▁detail	-10.321
▁officer	-10.3211
ven	-10.3213
run	-10.3225
▁Eric	-10.3241
▁reviewer	-10.3248
though	-10.325
bout	-10.3254
▁sal	-10.3258
wa	-10.3267
▁hole	-10.3278
pher	-10.3281
otte	-10.3286
▁lights	-10.3295
▁aspect	-10.3303
▁locations	-10.3333
▁Gr	-10.3339
▁rape	-10.3353
▁teens	-10.3361
▁hu	-10.3377
dimensional	-10.3383
Z	-10.3383
plot	-10.3386
First	-10.3387
After	-10.3387
▁Ron	-10.3388
John	-10.3395
▁constant	-10.3431
▁date	-10.3444
▁talents	-10.345
▁effective	-10.3454
▁teenage	-10.3458
▁capture	-10.346
qui	-10.3463
▁object	-10.3464
▁attract	-10.3464
▁grand	-10.3464
▁yell	-10.3465
▁Bronson	-10.3465
▁Foster	-10.3465
▁Montgomery	-10.3465
▁Nicole	-10.3465
▁Rhys	-10.3465
▁Spanish	-10.3465
▁VHS	-10.3465
▁category	-10.3465
▁decision	-10.3465
▁komodo	-10.3465
▁obsess	-10.3465
▁recognize	-10.3465
▁Derek	-10.3465
▁abandon	-10.3465
▁sweet	-10.3465
▁jail	-10.3465
▁stereotypical	-10.3465
▁source	-10.3465
▁initial	-10.3465
▁pacing	-10.3466
thing	-10.3466
▁preview	-10.3466
▁merit	-10.3466
▁dying	-10.3467
▁exploitation	-10.3468
▁commentary	-10.3468
▁handsome	-10.3469
▁Gun	-10.347
▁Emi	-10.3471
▁summer	-10.3471
▁sword	-10.3471
▁anybody	-10.3472
▁Tarantino	-10.3472
▁varie	-10.3472
▁anywhere	-10.3474
▁African	-10.3475
▁13	-10.3476
▁porno	-10.3477
cho	-10.3477
▁rank	-10.3478
▁pile	-10.3478
▁pity	-10.3479
▁switch	-10.3481
▁trust	-10.3481
▁buddy	-10.3481
▁PG	-10.3483
▁independent	-10.3486
▁showed	-10.3488
▁High	-10.3489
▁Up	-10.349
▁print	-10.3494
▁field	-10.3494
▁warned	-10.3496
▁Carl	-10.3496
▁drawn	-10.3496
▁Oldboy	-10.3498
▁Really	-10.3499
▁AND	-10.3499
▁gri	-10.3499
▁Was	-10.3499
▁noticed	-10.3505
▁captured	-10.3506
▁DO	-10.3513
idden	-10.3516
▁included	-10.3522
▁Hall	-10.3523
▁heads	-10.3524
▁Second	-10.3524
▁revealed	-10.3526
▁Willi	-10.3529
▁screaming	-10.3531
late	-10.3539
▁attacked	-10.3563
▁com	-10.357
▁**	-10.3589
▁dollars	-10.3602
▁presented	-10.3612
cent	-10.3617
▁Hard	-10.3617
war	-10.3623
▁Li	-10.3633
▁IT	-10.3661
▁la	-10.3677
hi	-10.3682
▁pe	-10.3686
De	-10.3688
▁bullets	-10.369
▁bo	-10.3694
!).	-10.3703
act	-10.3719
▁bat	-10.3721
▁ants	-10.373
▁imp	-10.3731
▁bin	-10.3731
▁returns	-10.3736
▁dam	-10.3738
ture	-10.3741
lly	-10.3746
▁bits	-10.3753
▁mask	-10.3754
He	-10.3759
▁:	-10.3769
▁Ice	-10.3776
ler	-10.379
▁Ali	-10.3794
they	-10.3794
▁Ber	-10.3797
▁factor	-10.3805
▁brothers	-10.3822
▁sum	-10.3859
▁Mel	-10.3864
cr	-10.3872
▁filming	-10.3874
▁spit	-10.3892
▁ratings	-10.3911
▁facts	-10.3923
▁Ann	-10.3934
Davies	-10.3939
from	-10.3943
American	-10.3944
With	-10.3948
Hell	-10.3952
OR	-10.3955
▁ham	-10.3963
▁crack	-10.3966
▁lie	-10.3976
▁product	-10.3978
ants	-10.3982
inal	-10.3983
▁surprising	-10.3986
unch	-10.3988
▁attacks	-10.3988
▁exact	-10.3995
▁relate	-10.3996
▁resemble	-10.4002
▁shut	-10.4012
▁depict	-10.4015
▁ignore	-10.4017
▁exploit	-10.4018
▁subtle	-10.4019
▁safe	-10.402
▁trans	-10.402
▁foot	-10.402
	-10.4021
▁Robicheaux	-10.4021
▁Stewart	-10.4021
▁THAT	-10.4021
▁contrived	-10.4021
▁disguise	-10.4021
▁negative	-10.4021
▁regular	-10.4021
▁vague	-10.4021
▁Armstrong	-10.4021
▁lesbian	-10.4021
▁opportunity	-10.4021
▁blatant	-10.4021
▁contest	-10.4021
▁risk	-10.4021
▁comedies	-10.4021
▁native	-10.4021
▁program	-10.4021
▁Ninja	-10.4021
▁bathroom	-10.4021
▁solid	-10.4021
▁department	-10.4021
▁root	-10.4022
▁kidding	-10.4022
▁gangster	-10.4022
▁witty	-10.4023
▁wake	-10.4023
▁executed	-10.4023
▁string	-10.4024
▁Rock	-10.4025
▁Jerry	-10.4025
▁artist	-10.4025
▁Nation	-10.4026
▁wrap	-10.4026
▁boss	-10.4028
▁14	-10.4028
▁Fred	-10.4028
▁offensive	-10.4028
▁Howard	-10.4028
▁boat	-10.4029
▁reaction	-10.403
▁Gus	-10.403
▁essentially	-10.4031
▁ghosts	-10.4031
▁Gene	-10.4033
▁broken	-10.4034
▁Green	-10.4034
umb	-10.4034
▁drivel	-10.4036
▁du	-10.4037
▁Du	-10.4037
▁Lord	-10.4041
▁Vampire	-10.4042
▁divers	-10.4042
▁Dog	-10.4042
▁club	-10.4042
▁Prett	-10.4044
ug	-10.4044
▁occasionally	-10.4046
▁k	-10.4047
▁Wicked	-10.405
▁justice	-10.4055
▁themes	-10.4068
▁express	-10.4071
▁Allen	-10.4073
▁demons	-10.408
▁dro	-10.4088
▁Rogers	-10.4089
▁virtual	-10.4102
▁perfectly	-10.4108
▁Bob	-10.4111
▁discovered	-10.4113
▁Stan	-10.4114
▁aware	-10.4115
,000	-10.4128
▁previously	-10.4128
▁seat	-10.4134
▁arms	-10.4135
▁clip	-10.4135
gging	-10.4161
▁pet	-10.4163
▁stinks	-10.4166
▁cuts	-10.4168
▁Pe	-10.418
▁met	-10.4193
fo	-10.4195
▁lu	-10.42
▁dislike	-10.4215
▁stands	-10.4219
▁Ga	-10.4226
An	-10.4228
there	-10.423
▁images	-10.4243
▁fail	-10.4244
▁Did	-10.4244
▁Matt	-10.4259
▁costumes	-10.4274
▁Days	-10.4274
▁Dad	-10.4277
▁Mad	-10.4279
▁addition	-10.4281
▁report	-10.4284
▁contain	-10.4297
▁plant	-10.4299
▁expressions	-10.4305
▁novels	-10.4306
▁model	-10.4319
▁levels	-10.4338
▁terror	-10.4339
▁monkey	-10.4346
▁commercial	-10.4346
▁adult	-10.4347
▁costume	-10.4348
▁se	-10.437
▁Day	-10.4372
pping	-10.4376
Jo	-10.4387
aged	-10.4389
▁scientists	-10.4446
cient	-10.4464
▁cav	-10.452
ced	-10.4526
after	-10.4531
style	-10.4532
shot	-10.4561
ups	-10.457
▁technical	-10.4573
▁youth	-10.4589
magine	-10.4602
mic	-10.4606
▁/>1	-10.4608
▁Ribisi	-10.4609
▁Vaughn	-10.4609
▁abysmal	-10.4609
▁appalling	-10.4609
▁benefit	-10.4609
▁depressing	-10.4609
▁disbelief	-10.4609
▁festival	-10.4609
▁horrid	-10.4609
▁liberal	-10.4609
▁process	-10.4609
▁radio	-10.4609
▁repetitive	-10.4609
▁substance	-10.4609
▁target	-10.4609
▁vehicle	-10.4609
▁excited	-10.4609
▁false	-10.4609
▁Walker	-10.4609
▁frightening	-10.4609
▁pilot	-10.4609
▁practical	-10.4609
▁Cavern	-10.4609
▁zero	-10.4609
story	-10.4609
▁supernatural	-10.4609
▁instance	-10.4609
▁lawyer	-10.4609
▁mummy	-10.461
▁Jean	-10.461
▁recall	-10.461
▁creating	-10.461
▁represent	-10.461
▁Blair	-10.4611
▁Wayne	-10.4611
▁Things	-10.4611
▁pool	-10.4611
▁tight	-10.4612
▁punch	-10.4612
▁stopped	-10.4612
▁gem	-10.4612
▁editor	-10.4612
▁sky	-10.4613
▁stunning	-10.4615
▁Danes	-10.4616
▁seven	-10.4616
▁genius	-10.4617
▁retarded	-10.4617
▁humorous	-10.4618
▁impressive	-10.4618
▁host	-10.462
▁fo	-10.462
▁Stop	-10.4621
▁parody	-10.4622
▁wreck	-10.4622
▁Poor	-10.4622
▁underground	-10.4623
▁Much	-10.4623
▁Angela	-10.4624
▁dirty	-10.4625
▁ring	-10.4625
▁replaced	-10.4627
▁opens	-10.4628
▁Basically	-10.4631
▁Dae	-10.4631
▁Australian	-10.4632
rid	-10.4633
▁driver	-10.4636
ney	-10.4636
▁Though	-10.4639
▁stumble	-10.4642
▁warning	-10.4646
iff	-10.4649
ga	-10.465
▁proved	-10.465
▁concerned	-10.4654
▁Iron	-10.466
▁park	-10.4664
▁Br	-10.4665
▁lock	-10.4668
▁ruined	-10.4668
▁Come	-10.4669
How	-10.4675
▁key	-10.468
rden	-10.4681
▁wise	-10.4683
▁Jod	-10.4688
▁nut	-10.4688
▁personally	-10.4689
▁Mod	-10.469
▁Dan	-10.4693
▁months	-10.4698
▁painfully	-10.4702
▁destroyed	-10.4722
▁cameo	-10.4723
▁prisoner	-10.4724
most	-10.4741
▁Ju	-10.4746
▁im	-10.4748
eating	-10.475
vol	-10.4758
▁IS	-10.477
mmy	-10.4773
ometimes	-10.4787
LE	-10.4807
eep	-10.4819
▁provid	-10.4827
▁flashbacks	-10.4845
At	-10.4847
▁idiots	-10.4862
ade	-10.4867
ope	-10.4874
very	-10.4891
▁ain	-10.4904
▁Ty	-10.4917
▁Jo	-10.492
▁sing	-10.4921
rap	-10.4922
ory	-10.4925
face	-10.4928
ire	-10.4947
▁pa	-10.495
▁prepar	-10.4951
uring	-10.4955
▁villains	-10.4959
▁Ben	-10.4961
▁Liv	-10.4965
▁idiot	-10.497
▁bullet	-10.4974
▁dar	-10.4976
▁reference	-10.4976
▁hopes	-10.4976
dict	-10.4979
▁games	-10.4997
▁walks	-10.5002
▁forces	-10.5063
▁caus	-10.507
▁cheat	-10.5071
▁forest	-10.5102
▁Hu	-10.5104
▁sheer	-10.5106
ana	-10.5108
▁sequels	-10.5114
ok	-10.5144
cience	-10.5147
▁sho	-10.5151
produc	-10.5152
Anyway	-10.5154
special	-10.5155
Unfortunately	-10.5155
Maybe	-10.5155
That	-10.5156
called	-10.5157
▁Will	-10.5158
Even	-10.5159
vers	-10.5174
▁market	-10.5178
make	-10.5183
▁Fox	-10.5186
▁mild	-10.52
gan	-10.5215
▁Wor	-10.523
▁formula	-10.5232
’	-10.5234
▁1970	-10.5234
▁Bernard	-10.5234
▁Hodder	-10.5234
▁MOVIE	-10.5234
▁THIS	-10.5234
▁captain	-10.5234
▁creator	-10.5234
▁excitement	-10.5234
▁intrigue	-10.5234
▁plague	-10.5234
▁portion	-10.5234
▁section	-10.5234
▁underwater	-10.5234
▁Especially	-10.5234
▁funnier	-10.5234
▁miserable	-10.5234
▁World	-10.5234
▁harsh	-10.5234
▁slapstick	-10.5234
▁awesome	-10.5234
▁Since	-10.5234
▁regret	-10.5234
▁accomplish	-10.5234
▁beauty	-10.5234
▁goofy	-10.5234
▁motivation	-10.5234
▁temp	-10.5234
▁hurt	-10.5234
▁intelligence	-10.5234
▁angel	-10.5234
▁cruise	-10.5235
▁summary	-10.5235
▁Harry	-10.5235
▁alright	-10.5235
▁food	-10.5235
▁wannabe	-10.5235
▁Life	-10.5235
▁Blade	-10.5235
▁sentence	-10.5235
Scary	-10.5235
▁race	-10.5235
▁Mummy	-10.5235
▁ladies	-10.5235
▁Walter	-10.5236
▁stiff	-10.5236
▁edge	-10.5236
▁unrealistic	-10.5236
▁4/10	-10.5236
▁1/10	-10.5236
▁slightest	-10.5236
▁scale	-10.5236
▁Dudikoff	-10.5237
▁Story	-10.5238
▁flow	-10.5239
▁BAD	-10.5239
▁conflict	-10.5239
▁page	-10.5241
▁Sadie	-10.5242
▁Island	-10.5242
▁Communist	-10.5243
▁uninspired	-10.5243
▁animated	-10.5243
▁passion	-10.5244
read	-10.5244
▁stolen	-10.5244
▁debut	-10.5246
▁passable	-10.5246
▁cheer	-10.5247
▁table	-10.525
▁Space	-10.5251
▁shape	-10.5254
▁grown	-10.5259
▁fascinating	-10.5262
▁carrie	-10.5263
▁heroes	-10.5264
▁semi	-10.5264
▁impressed	-10.5265
gotten	-10.5265
▁$	-10.5269
▁Lo	-10.5272
via	-10.5273
▁Killer	-10.5277
▁/>*	-10.5284
▁originality	-10.5287
▁surreal	-10.5293
▁designed	-10.5297
▁pr	-10.5298
▁failing	-10.5299
▁offered	-10.5328
▁kicks	-10.5337
chi	-10.534
▁mi	-10.5342
▁miles	-10.5355
▁core	-10.536
core	-10.537
▁aside	-10.538
▁thrill	-10.539
▁Mrs	-10.5392
▁bill	-10.5395
Man	-10.5396
▁rubb	-10.5404
▁ice	-10.5417
ations	-10.542
aught	-10.5427
top	-10.5444
▁exchange	-10.545
▁achieve	-10.5462
▁chas	-10.5485
LO	-10.5487
pol	-10.5489
▁adults	-10.5521
MA	-10.5526
▁pat	-10.5526
▁disc	-10.5532
▁Da	-10.5543
LY	-10.5556
head	-10.5563
▁cl	-10.5567
stin	-10.5572
▁Men	-10.558
▁concern	-10.5581
Unless	-10.5586
▁sole	-10.5591
ange	-10.5595
▁ski	-10.5599
AD	-10.5613
▁surely	-10.5614
ane	-10.5617
▁Girl	-10.5632
▁UFO	-10.5633
▁image	-10.5639
▁flashback	-10.564
▁rule	-10.5641
ging	-10.5663
▁noise	-10.5663
▁HU	-10.567
gar	-10.5678
▁voices	-10.5685
arm	-10.57
fest	-10.5714
▁dreams	-10.5735
halfway	-10.5748
▁commit	-10.576
▁ca	-10.5762
dor	-10.5768
where	-10.5768
play	-10.5769
▁thank	-10.5774
nyone	-10.5779
▁weeks	-10.5789
down	-10.5802
VE	-10.5802
writer	-10.5806
wise	-10.5812
SPOILER	-10.5813
cher	-10.5814
From	-10.5822
Also	-10.5822
When	-10.5822
clear	-10.5824
town	-10.5824
saw	-10.5825
▁knowing	-10.5836
▁demand	-10.5841
made	-10.5844
▁succeed	-10.5849
▁center	-10.585
ft	-10.5851
played	-10.5856
She	-10.586
looking	-10.5865
▁luck	-10.5875
▁sun	-10.5887
▁threat	-10.5896
/10	-10.5897
evin	-10.59
▁California	-10.5901
▁Canadian	-10.5901
▁Kubrick	-10.5901
▁London	-10.5901
▁Obviously	-10.5901
▁Seagal	-10.5901
▁Shiban	-10.5901
▁advance	-10.5901
▁blank	-10.5901
▁curiosity	-10.5901
▁disagree	-10.5901
▁exercise	-10.5901
▁gorgeous	-10.5901
▁gruesome	-10.5901
▁heavily	-10.5901
▁helicopter	-10.5901
▁horrendous	-10.5901
▁incredible	-10.5901
▁reputation	-10.5901
▁scenario	-10.5901
▁splatter	-10.5901
▁terrific	-10.5901
▁trilogy	-10.5901
▁BBC	-10.5901
▁Wynorski	-10.5901
▁smile	-10.5901
▁tongue	-10.5901
▁Rip	-10.5901
▁Year	-10.5901
▁drill	-10.5901
▁prevent	-10.5901
▁advise	-10.5901
▁attitude	-10.5901
▁extent	-10.5901
▁gross	-10.5901
▁memory	-10.5901
▁stunt	-10.5901
▁Paris	-10.5901
▁lazy	-10.5901
▁Characters	-10.5901
▁sympathy	-10.5901
▁therefore	-10.5901
▁quote	-10.5901
▁ticket	-10.5901
▁criticism	-10.5901
▁introduction	-10.5901
▁robot	-10.5901
▁Catholic	-10.5902
▁outfit	-10.5902
▁melodramatic	-10.5902
▁Half	-10.5902
▁charge	-10.5902
▁downhill	-10.5902
▁Evil	-10.5903
▁tank	-10.5903
▁3/10	-10.5903
▁winner	-10.5904
▁Full	-10.5904
▁enter	-10.5904
▁Nick	-10.5904
▁impact	-10.5905
▁exorcism	-10.5905
▁16	-10.5905
▁discussion	-10.5906
▁uninteresting	-10.5907
▁USA	-10.5908
▁Bava	-10.5909
▁sympathetic	-10.5909
▁Sarah	-10.5911
▁multipl	-10.5912
▁Someone	-10.5915
▁Hulk	-10.5915
▁Actually	-10.5915
▁tune	-10.5915
▁winning	-10.5915
▁hitting	-10.5915
▁Korean	-10.5915
▁metal	-10.5916
▁Charlie	-10.5919
▁Show	-10.592
▁IQ	-10.5921
▁required	-10.5922
▁appropriate	-10.5924
▁Does	-10.5927
▁Acting	-10.5932
▁singer	-10.5933
▁surprises	-10.5937
▁End	-10.594
▁distracting	-10.5943
▁Sally	-10.5943
▁craft	-10.5949
▁SPOILERS	-10.5952
▁theatrical	-10.5967
▁board	-10.5968
▁hack	-10.5975
see	-10.5976
▁Still	-10.598
▁delivery	-10.5983
key	-10.5988
ending	-10.5996
▁Lot	-10.5996
▁1.	-10.6034
▁IN	-10.6038
▁murdered	-10.6048
▁handle	-10.605
Re	-10.606
▁featured	-10.6069
ular	-10.6073
amp	-10.6092
gre	-10.6095
▁relative	-10.6096
▁rec	-10.6101
▁beast	-10.6108
ple	-10.6114
bit	-10.6121
▁HA	-10.6125
▁arrives	-10.6133
▁Lin	-10.6137
▁bath	-10.6149
▁nose	-10.6161
eyed	-10.6172
▁tit	-10.6174
▁rid	-10.6193
▁commercials	-10.6209
ough	-10.6213
▁Ni	-10.6221
▁deaths	-10.6224
▁recommended	-10.6255
▁provides	-10.6262
ix	-10.6274
ink	-10.6279
▁souls	-10.6285
▁Hav	-10.6287
▁spoilers	-10.6289
▁emotions	-10.6307
ather	-10.6314
▁starr	-10.632
▁describ	-10.6336
▁aliens	-10.6342
▁z	-10.6347
▁decade	-10.6351
▁puppet	-10.6356
▁stereotype	-10.6357
▁bag	-10.6364
▁soldier	-10.6371
▁Roman	-10.6385
TE	-10.6387
▁invest	-10.6392
▁hip	-10.6401
OK	-10.6432
▁Spe	-10.6439
fu	-10.644
▁Are	-10.6441
stop	-10.6449
▁TO	-10.6454
ank	-10.6472
▁player	-10.6479
▁nu	-10.6495
▁discovers	-10.6502
▁25	-10.6508
su	-10.6511
ime	-10.6515
▁lover	-10.6517
▁indicate	-10.6521
▁dialogs	-10.6521
1)	-10.6529
Second	-10.6535
Like	-10.6536
including	-10.6536
twist	-10.6536
awful	-10.6537
school	-10.6537
when	-10.6537
something	-10.6538
appy	-10.6539
Watch	-10.6539
▁featur	-10.6539
▁hunt	-10.6541
▁focuse	-10.6541
Let	-10.6546
▁suggests	-10.6559
lead	-10.6559
▁trick	-10.6567
huck	-10.657
▁Add	-10.6572
▁Pete	-10.6577
▁buil	-10.6578
▁Kill	-10.6581
▁proper	-10.6585
▁confuse	-10.6587
▁Cor	-10.6593
▁Ex	-10.6596
▁Australia	-10.6597
▁Russia	-10.6597
▁reflect	-10.6607
▁employ	-10.6615
▁YOU	-10.6615
▁horrific	-10.6615
▁slaughter	-10.6615
▁Boleyn	-10.6615
▁Conroy	-10.6615
▁Epps	-10.6615
▁Magoo	-10.6615
▁Princess	-10.6615
▁WWII	-10.6615
▁assassin	-10.6615
▁circumstances	-10.6615
▁description	-10.6615
▁enemy	-10.6615
▁explode	-10.6615
▁families	-10.6615
▁puzzle	-10.6615
▁religion	-10.6615
▁rival	-10.6615
▁unexpected	-10.6615
▁veteran	-10.6615
▁virus	-10.6615
▁dinner	-10.6615
▁homage	-10.6615
▁method	-10.6615
▁network	-10.6615
▁prior	-10.6615
▁study	-10.6615
▁Ethan	-10.6615
-13	-10.6615
▁Bridge	-10.6615
▁Anderson	-10.6615
▁basis	-10.6615
▁convey	-10.6615
▁court	-10.6615
▁prime	-10.6615
▁individual	-10.6615
▁North	-10.6615
▁psychological	-10.6616
▁props	-10.6616
▁Hitch	-10.6616
characterization	-10.6616
▁Mac	-10.6616
▁1950	-10.6616
▁nine	-10.6616
▁Would	-10.6616
▁pack	-10.6616
▁cousin	-10.6616
▁screw	-10.6616
▁riddle	-10.6616
▁Woodward	-10.6616
▁wound	-10.6617
▁auto	-10.6617
▁Karen	-10.6617
▁fix	-10.6617
▁Devil	-10.6618
▁generation	-10.6618
▁associate	-10.6619
▁White	-10.6619
▁Turner	-10.6619
END	-10.662
▁meaningless	-10.662
▁Robin	-10.662
▁guilty	-10.662
▁Tony	-10.6621
▁treatment	-10.6621
▁suspenseful	-10.6621
▁axe	-10.6622
▁dry	-10.6622
▁dragon	-10.6622
▁Marion	-10.6623
▁reward	-10.6623
▁Moon	-10.6624
▁III	-10.6624
▁Jennifer	-10.6624
▁NA	-10.6625
▁Wish	-10.6625
▁Cuba	-10.6626
▁mob	-10.6626
▁pregnan	-10.6629
▁acceptable	-10.6629
▁Blue	-10.663
▁pleasure	-10.663
▁desired	-10.6631
▁China	-10.6636
▁escapes	-10.6639
▁rushed	-10.6639
▁expose	-10.6641
▁Solomon	-10.6642
▁naturally	-10.6642
▁mission	-10.6645
▁dude	-10.6646
▁ver	-10.6649
▁upset	-10.6649
▁powerful	-10.665
▁dive	-10.6652
han	-10.6652
ridden	-10.6653
▁letter	-10.6662
▁rough	-10.6669
▁Billy	-10.6674
▁ignored	-10.6674
▁endure	-10.6676
inspired	-10.6676
▁candy	-10.6682
▁beach	-10.6688
▁critical	-10.6696
▁sock	-10.6704
▁rolling	-10.6704
▁agreed	-10.6722
▁official	-10.6729
▁finale	-10.673
▁willing	-10.6737
▁Total	-10.6742
▁mixed	-10.6751
▁experienced	-10.676
▁tip	-10.6761
atur	-10.677
They	-10.6784
▁explosions	-10.6785
eer	-10.6794
▁bucks	-10.6805
ship	-10.6808
▁0	-10.681
▁planet	-10.6813
10	-10.6821
rilla	-10.6834
▁daughters	-10.6837
▁Hi	-10.6851
nny	-10.6853
▁sa	-10.6854
▁comp	-10.6861
▁pot	-10.6876
rley	-10.6887
ino	-10.6899
▁thanks	-10.6907
▁faced	-10.6913
▁pictures	-10.6917
▁cars	-10.6929
..."	-10.6947
▁monkeys	-10.6947
▁models	-10.6949
Su	-10.6965
teen	-10.697
▁wondered	-10.6973
cha	-10.6981
▁Son	-10.6984
▁inf	-10.6987
▁cur	-10.6988
▁remembered	-10.6993
▁claims	-10.7011
▁matters	-10.7019
▁/>(	-10.7037
▁legs	-10.7038
▁fare	-10.7051
▁attempting	-10.7069
nnie	-10.707
▁scar	-10.7072
▁Qu	-10.7076
▁pale	-10.7094
▁arrive	-10.7121
▁Mu	-10.7124
zy	-10.7133
eel	-10.7172
anni	-10.7178
▁announce	-10.7187
6)	-10.7209
▁hid	-10.7231
▁ro	-10.7265
▁entertain	-10.7286
ify	-10.7298
friend	-10.7301
Although	-10.7305
view	-10.7305
horror	-10.7306
Still	-10.7312
▁Tim	-10.7332
▁refus	-10.7335
dog	-10.7338
▁types	-10.7349
▁occasional	-10.7351
rry	-10.7356
▁hook	-10.7366
▁broke	-10.7367
acting	-10.7372
▁bore	-10.7373
▁views	-10.7374
▁discuss	-10.7378
▁narrat	-10.738
▁Way	-10.7383
▁danger	-10.7383
▁melodrama	-10.7383
▁EVER	-10.7383
▁birth	-10.7384
▁qua	-10.7384
▁1940	-10.7384
▁Affleck	-10.7384
▁Broadway	-10.7384
▁Eagle	-10.7384
▁Estevez	-10.7384
▁Exorcist	-10.7384
▁Horrible	-10.7384
▁Houston	-10.7384
▁MacLaine	-10.7384
▁Taylor	-10.7384
▁WATCH	-10.7384
▁companies	-10.7384
▁contrast	-10.7384
▁credibility	-10.7384
▁engaging	-10.7384
▁evidence	-10.7384
▁frustrat	-10.7384
▁generic	-10.7384
▁implausible	-10.7384
▁installment	-10.7384
▁intriguing	-10.7384
▁obnoxious	-10.7384
▁phrase	-10.7384
▁plastic	-10.7384
▁scratch	-10.7384
▁sidekick	-10.7384
▁status	-10.7384
▁thirty	-10.7384
▁vacation	-10.7384
▁vulgar	-10.7384
▁wardrobe	-10.7384
▁Barbara	-10.7384
▁credible	-10.7384
▁subsequent	-10.7384
▁wig	-10.7384
▁afternoon	-10.7384
▁sharp	-10.7384
▁spark	-10.7384
▁render	-10.7384
▁timing	-10.7384
▁Swan	-10.7384
▁audio	-10.7384
▁lift	-10.7384
▁realise	-10.7384
▁tragic	-10.7384
▁DID	-10.7384
▁contact	-10.7384
▁cardboard	-10.7384
▁ONLY	-10.7384
▁jealous	-10.7385
▁deputy	-10.7385
▁hint	-10.7385
▁link	-10.7385
▁greed	-10.7385
▁screwball	-10.7385
▁Romero	-10.7385
▁Wisconsin	-10.7385
▁routine	-10.7385
▁football	-10.7385
▁wire	-10.7386
▁nude	-10.7386
▁colors	-10.7386
▁Grade	-10.7386
▁Bobby	-10.7386
▁yellow	-10.7386
▁Patrick	-10.7386
▁pimp	-10.7386
▁proud	-10.7387
▁Chase	-10.7387
▁Again	-10.7387
▁Wind	-10.7388
▁spell	-10.7388
▁cell	-10.7388
▁pants	-10.7388
▁influence	-10.7388
▁fright	-10.7389
▁theatre	-10.7389
▁Later	-10.7389
▁ripoff	-10.7389
▁storytelling	-10.7389
▁mass	-10.739
▁insight	-10.7391
▁neck	-10.7391
▁Max	-10.7391
CE	-10.7391
Mr	-10.7393
▁wa	-10.7393
▁Sebastian	-10.7394
▁intense	-10.7394
▁warrior	-10.7394
▁Douglas	-10.7394
ula	-10.7395
▁barrel	-10.7395
▁chosen	-10.7395
▁necessary	-10.7401
▁crowd	-10.7402
▁Kelly	-10.7405
▁hooker	-10.7406
▁Dave	-10.7407
▁realism	-10.7407
▁significant	-10.7409
▁Roberts	-10.7409
50	-10.7413
▁bitter	-10.7414
Ch	-10.7416
▁House	-10.742
▁properly	-10.7422
▁dim	-10.7427
▁Ray	-10.7427
▁Death	-10.7429
▁Amy	-10.7431
kip	-10.7432
▁Have	-10.7434
▁Rob	-10.7438
▁campy	-10.744
▁whoever	-10.7443
▁feed	-10.7443
▁Sun	-10.7445
▁glimpse	-10.7447
▁fi	-10.7451
▁Nak	-10.7461
▁trained	-10.7463
▁West	-10.7465
▁rolled	-10.7467
▁deserved	-10.747
▁Last	-10.7474
▁Cole	-10.748
▁crying	-10.7481
▁accepted	-10.7481
▁wet	-10.7487
izing	-10.7495
▁according	-10.7499
▁Sho	-10.7504
▁Plan	-10.7519
▁murderer	-10.752
rise	-10.7524
▁Demons	-10.7525
▁sleeping	-10.7528
▁viewed	-10.7536
▁higher	-10.7547
▁chat	-10.755
▁critics	-10.7551
▁committe	-10.7551
▁Gree	-10.7555
▁improve	-10.7564
CH	-10.7564
▁slip	-10.7572
vil	-10.7584
pped	-10.7585
30	-10.759
▁rant	-10.7591
2)	-10.7598
Ed	-10.7615
▁van	-10.764
▁results	-10.7645
▁owner	-10.7666
GE	-10.7671
▁decades	-10.7678
entin	-10.7681
ady	-10.7681
▁collect	-10.7683
▁cap	-10.7684
▁Adams	-10.7686
▁closed	-10.7687
▁fur	-10.769
hop	-10.7691
Nice	-10.7696
▁bon	-10.7696
▁thrills	-10.7707
▁explains	-10.7739
Then	-10.7742
reak	-10.7749
▁fighter	-10.7759
▁Wars	-10.7786
▁intention	-10.7787
ative	-10.7834
...)	-10.7838
maker	-10.7841
wn	-10.7846
▁cliches	-10.7856
cking	-10.7869
▁ear	-10.7869
more	-10.7876
ified	-10.7895
").	-10.7897
board	-10.792
▁angle	-10.7959
▁believed	-10.7979
▁Red	-10.798
▁Shi	-10.7989
zi	-10.7996
▁invent	-10.8016
▁Wal	-10.8026
▁shower	-10.8033
▁Na	-10.8036
▁praise	-10.804
ery	-10.804
▁sounding	-10.806
▁extras	-10.806
ature	-10.8069
ctic	-10.8072
worthy	-10.8073
▁Back	-10.8085
ddy	-10.8097
▁signs	-10.8118
shirt	-10.8134
wood	-10.8135
written	-10.8135
Angel	-10.8138
Reba	-10.8139
class	-10.8139
mentioned	-10.8139
walk	-10.8139
house	-10.8142
change	-10.8142
lude	-10.8144
watch	-10.8144
▁figures	-10.8144
▁adds	-10.8147
Did	-10.8156
▁pretend	-10.8159
▁suits	-10.8162
live	-10.8164
▁witness	-10.8164
hero	-10.8164
▁limit	-10.8169
▁lovely	-10.8174
ailing	-10.8183
▁slight	-10.8189
away	-10.8191
let	-10.8192
▁blond	-10.8197
▁slash	-10.8199
▁Part	-10.8199
▁Korea	-10.8199
▁incest	-10.8202
▁hype	-10.8202
▁affect	-10.8207
?).	-10.8213
▁homosexual	-10.8215
▁construct	-10.8215
▁complain	-10.8215
▁Turk	-10.8216
▁cruel	-10.8217
ology	-10.8217
▁Massacre	-10.8218
▁Spartans	-10.8218
▁Vietnam	-10.8218
▁Assassin	-10.8218
▁Aussie	-10.8218
▁Exorcism	-10.8218
▁Fiction	-10.8218
▁Gardner	-10.8218
▁Hitler	-10.8218
▁Hopkins	-10.8218
▁Leigh	-10.8218
▁Nielsen	-10.8218
▁Nielson	-10.8218
▁Plainfield	-10.8218
▁School	-10.8218
▁Sutherland	-10.8218
▁altogether	-10.8218
▁behavior	-10.8218
▁bridge	-10.8218
▁community	-10.8218
▁context	-10.8218
▁controversial	-10.8218
▁degree	-10.8218
▁elderly	-10.8218
▁ensue	-10.8218
▁execution	-10.8218
▁muddled	-10.8218
▁pistol	-10.8218
▁president	-10.8218
▁spectacular	-10.8218
▁technique	-10.8218
▁churn	-10.8218
▁colour	-10.8218
▁corpse	-10.8218
▁smash	-10.8218
▁Plus	-10.8218
▁disgrace	-10.8218
▁Trek	-10.8218
▁menacing	-10.8218
▁Satan	-10.8218
▁tolerable	-10.8218
▁adopt	-10.8218
▁sickening	-10.8218
annon	-10.8218
▁surface	-10.8218
▁prostitute	-10.8218
▁Morgan	-10.8218
▁cowboy	-10.8218
▁Stay	-10.8218
▁joy	-10.8218
▁Camer	-10.8218
▁calm	-10.8218
▁thief	-10.8218
▁health	-10.8218
llegal	-10.8218
Silence	-10.8218
▁erotic	-10.8218
▁Native	-10.8218
▁attach	-10.8218
▁Troma	-10.8218
▁remove	-10.8218
▁kiss	-10.8219
▁bleed	-10.8219
▁Brother	-10.8219
▁elementary	-10.8219
▁Theater	-10.8219
▁hostage	-10.8219
▁snake	-10.8219
▁Hans	-10.822
▁resemblance	-10.822
▁Descent	-10.822
▁European	-10.822
▁Mike	-10.8221
▁trait	-10.8221
▁Check	-10.8221
▁menace	-10.8222
▁Father	-10.8222
▁intellectual	-10.8222
▁Edward	-10.8222
▁label	-10.8222
▁Down	-10.8223
dding	-10.8223
▁Donna	-10.8225
rench	-10.8228
▁Natalie	-10.8229
▁structure	-10.8229
▁Merchant	-10.8229
▁chest	-10.8229
UE	-10.8229
▁Bush	-10.8231
▁media	-10.8232
▁JP	-10.8233
▁Gold	-10.8234
▁exit	-10.8235
▁Heche	-10.8235
▁fictional	-10.8235
▁Family	-10.8236
▁Bruno	-10.8236
▁boost	-10.8236
▁Special	-10.8236
▁Agar	-10.8237
▁shuttl	-10.8238
▁Rose	-10.8238
boy	-10.8238
▁Rent	-10.8238
▁Something	-10.8238
▁tiny	-10.8238
▁sink	-10.8239
▁Galaxina	-10.8243
▁dancer	-10.8245
▁brand	-10.8248
▁Soultaker	-10.825
▁hill	-10.8251
▁forgive	-10.8253
▁Myster	-10.8255
▁whenever	-10.8257
▁Bloodline	-10.8258
▁Land	-10.8261
▁lesson	-10.8266
▁flying	-10.8266
Danny	-10.8271
▁Jay	-10.8271
▁rob	-10.8275
▁effectively	-10.8275
▁Ei	-10.8279
▁lucky	-10.8279
▁jobs	-10.8279
▁unlikely	-10.8281
▁Julian	-10.8281
▁Boll	-10.8282
▁ONE	-10.8283
▁ju	-10.8297
▁May	-10.8303
▁Sel	-10.8305
lock	-10.8307
▁continued	-10.8307
▁returned	-10.831
▁dinosaurs	-10.8324
iness	-10.8328
wing	-10.8331
▁shoe	-10.8337
▁slave	-10.8344
▁subplots	-10.8347
▁appealing	-10.8348
AC	-10.8349
▁jumping	-10.8352
▁France	-10.8355
▁bare	-10.8358
▁Ken	-10.836
handed	-10.8362
▁inane	-10.8362
ford	-10.8364
▁sexually	-10.8364
Palm	-10.8365
Donald	-10.8369
▁Am	-10.8377
▁sales	-10.8382
▁logical	-10.8385
▁toward	-10.8393
▁intentional	-10.8395
▁fired	-10.84
▁fe	-10.8409
leen	-10.8421
▁followed	-10.8423
▁introduc	-10.8441
psy	-10.8441
ised	-10.8451
mate	-10.8454
▁Los	-10.8463
ini	-10.8464
▁photos	-10.8466
▁tears	-10.8466
▁Lil	-10.8471
▁Joan	-10.8472
▁passed	-10.848
▁continual	-10.8485
onic	-10.8501
▁mod	-10.8503
▁Christians	-10.8505
▁judg	-10.8522
▁speaks	-10.8536
losing	-10.858
fa	-10.8582
▁Jam	-10.8585
ON	-10.8598
▁symbol	-10.86
are	-10.8605
▁prepare	-10.8614
▁covered	-10.862
▁rag	-10.8622
love	-10.8656
▁officers	-10.8661
▁Rai	-10.8664
▁fund	-10.8673
▁BE	-10.8678
▁Ran	-10.8685
liners	-10.8686
▁strip	-10.8705
▁Gra	-10.871
ari	-10.8754
▁copie	-10.8785
▁Die	-10.8787
▁ste	-10.8791
▁Medi	-10.8792
hack	-10.8795
AL	-10.8804
▁judge	-10.8804
▁require	-10.8828
▁breathe	-10.8829
▁teach	-10.8831
▁humans	-10.8846
▁solve	-10.8851
▁mountain	-10.8856
actor	-10.886
ied	-10.886
iz	-10.8861
▁photo	-10.8862
▁tear	-10.8862
▁slap	-10.8874
▁laughabl	-10.8886
▁def	-10.8889
▁cow	-10.889
lumber	-10.8899
▁inform	-10.8907
▁caring	-10.8913
▁bone	-10.8915
nel	-10.8931
hard	-10.8942
▁feelings	-10.8971
▁refer	-10.8973
body	-10.8994
look	-10.8998
grade	-10.9001
▁Tri	-10.9006
▁Charles	-10.9022
▁Fi	-10.9027
kill	-10.9028
known	-10.9043
Psycho	-10.9047
Good	-10.9048
piece	-10.9048
human	-10.9048
Just	-10.9048
different	-10.9048
bound	-10.9051
box	-10.9052
wait	-10.9054
!!!!!	-10.9055
book	-10.9057
law	-10.9063
▁distract	-10.9064
Bone	-10.9074
Yes	-10.9084
▁descend	-10.9092
▁sudden	-10.9093
▁receive	-10.9097
▁preach	-10.91
xcept	-10.9104
▁delight	-10.911
▁natural	-10.9111
umber	-10.9115
▁bike	-10.9115
▁progress	-10.9122
▁Old	-10.9125
eyond	-10.9125
▁price	-10.9125
▁text	-10.9126
▁Simp	-10.9126
▁environment	-10.9127
▁1978	-10.9127
▁Bunuel	-10.9127
▁DEAD	-10.9127
▁Kersey	-10.9127
▁Lynch	-10.9127
▁Rachael	-10.9127
▁primar	-10.9127
▁soccer	-10.9127
▁swallow	-10.9127
▁synopsis	-10.9127
2:37	-10.9127
Jurassic	-10.9127
educated	-10.9127
▁Hauer	-10.9127
▁Monster	-10.9127
▁Russell	-10.9127
▁Silver	-10.9127
▁Writer	-10.9127
▁argue	-10.9127
▁astonishing	-10.9127
▁bottle	-10.9127
▁caricature	-10.9127
▁ceiling	-10.9127
▁chapter	-10.9127
▁condition	-10.9127
▁creativity	-10.9127
▁cynical	-10.9127
▁devoid	-10.9127
▁flood	-10.9127
▁genetic	-10.9127
▁illogical	-10.9127
▁morning	-10.9127
▁patient	-10.9127
▁rabid	-10.9127
▁security	-10.9127
▁skull	-10.9127
▁submarine	-10.9127
▁chuckle	-10.9127
▁clown	-10.9127
▁dubbing	-10.9127
▁interpretation	-10.9127
▁Scene	-10.9127
▁position	-10.9127
▁BIG	-10.9127
▁jean	-10.9127
▁afford	-10.9127
▁psychopath	-10.9127
▁Wild	-10.9127
▁broadcast	-10.9127
▁shelf	-10.9127
▁maintain	-10.9127
▁Alec	-10.9127
▁robbery	-10.9127
▁Alfre	-10.9127
▁vicious	-10.9127
▁Clint	-10.9127
▁Brolin	-10.9127
▁minimal	-10.9127
▁miscast	-10.9127
▁tribe	-10.9127
▁transition	-10.9127
▁dismiss	-10.9128
▁birthday	-10.9128
▁thug	-10.9128
whilst	-10.9128
▁1930	-10.9128
▁bitten	-10.9128
Third	-10.9128
▁Field	-10.9128
▁stylish	-10.9128
▁awake	-10.9128
▁laser	-10.9128
▁investigation	-10.9128
▁massive	-10.9129
▁pomp	-10.9129
▁Game	-10.9129
▁moronic	-10.9129
▁afore	-10.9129
▁daily	-10.913
▁kink	-10.913
▁Nobody	-10.913
▁mute	-10.913
▁intent	-10.913
▁bank	-10.913
▁relie	-10.913
▁poker	-10.9131
▁Know	-10.9131
▁neighbor	-10.9131
▁Art	-10.9131
swimming	-10.9131
▁elsewhere	-10.9131
▁Light	-10.9132
▁basement	-10.9132
▁Hart	-10.9132
▁besides	-10.9132
▁Johnny	-10.9132
▁Brian	-10.9133
▁spiritual	-10.9133
▁Israeli	-10.9133
▁Fair	-10.9133
▁DON	-10.9133
▁lit	-10.9133
▁Hill	-10.9136
▁amused	-10.9137
ification	-10.9139
▁Naturally	-10.9139
▁Adventure	-10.9139
▁President	-10.9139
▁Johnson	-10.9139
▁maniac	-10.9139
▁Percy	-10.9139
▁Woman	-10.914
▁steer	-10.9141
▁choppy	-10.9142
▁assure	-10.9144
▁fourth	-10.9145
▁address	-10.9145
▁Claire	-10.9146
▁Nightbeast	-10.9146
▁Police	-10.9146
▁born	-10.9147
▁quirky	-10.9148
▁topless	-10.915
Hopefully	-10.9152
▁warn	-10.9152
▁dragged	-10.9153
▁darkness	-10.9153
▁chopped	-10.9153
▁Over	-10.9154
▁Three	-10.9154
▁Miss	-10.9156
▁Pul	-10.9156
▁insist	-10.9157
lip	-10.9161
▁threatening	-10.9163
▁organ	-10.9165
▁tripe	-10.9167
▁Take	-10.9171
▁lowest	-10.9171
▁impos	-10.9172
▁circ	-10.9174
▁actresses	-10.9174
▁wandering	-10.918
▁lab	-10.918
▁busy	-10.9182
▁dated	-10.9183
▁ripping	-10.9183
▁Get	-10.9184
▁longest	-10.9185
Darcy	-10.9186
served	-10.9187
▁2)	-10.9193
▁incoherent	-10.9196
▁icon	-10.9196
▁pretending	-10.9203
▁Time	-10.9208
▁lifeless	-10.9211
▁Bull	-10.9212
▁gain	-10.9212
IRA	-10.9218
mber	-10.922
au	-10.9221
▁:)	-10.9221
▁spoiled	-10.9226
▁encourage	-10.9227
▁weirdo	-10.9231
▁Rest	-10.9243
▁breasts	-10.9243
▁fights	-10.9247
vid	-10.9249
▁anger	-10.9252
▁tra	-10.9265
yes	-10.9267
▁eats	-10.9284
uel	-10.9291
▁magical	-10.9293
ena	-10.9296
▁suffering	-10.9299
▁spin	-10.9307
▁performer	-10.9317
▁opened	-10.9319
▁Dar	-10.9322
▁reduce	-10.9326
▁kicked	-10.9343
▁sports	-10.9348
▁/>***	-10.9348
By	-10.9358
▁aboard	-10.9374
▁ya	-10.9382
▁button	-10.9387
▁dec	-10.9396
redeemable	-10.94
▁Andy	-10.9413
▁killings	-10.942
▁ears	-10.943
mud	-10.9431
▁breath	-10.9434
▁Bla	-10.9439
▁ahead	-10.944
cid	-10.9446
▁titled	-10.9464
▁goal	-10.9469
ister	-10.9469
▁nicely	-10.9472
▁dropp	-10.9484
mming	-10.9485
iya	-10.9499
▁noises	-10.9507
▁placed	-10.955
▁king	-10.9559
pel	-10.956
▁rings	-10.9561
tious	-10.9577
▁Boo	-10.9595
TH	-10.9632
▁warm	-10.9632
Ma	-10.9634
▁blows	-10.9635
▁ni	-10.964
▁screams	-10.9671
▁package	-10.9702
▁ripp	-10.9704
atter	-10.9708
▁CA	-10.9708
▁ages	-10.9725
95	-10.9737
▁fed	-10.9748
▁pee	-10.9789
▁Gen	-10.9791
lle	-10.9791
▁streets	-10.9805
▁flaw	-10.9813
▁chang	-10.9815
80	-10.9818
aking	-10.9831
▁Bor	-10.9843
Clar	-10.9843
▁spots	-10.9849
itty	-10.9849
▁stink	-10.9852
come	-10.9853
▁nightmare	-10.9859
▁buck	-10.9871
▁dollar	-10.9878
j	-10.9903
col	-10.994
Ho	-10.994
▁Per	-10.9944
ega	-10.9965
▁!!!	-10.9965
▁purchas	-10.9967
▁mistakes	-11.0001
▁shoulder	-11.0016
▁annoy	-11.0019
under	-11.0022
goers	-11.0029
mie	-11.0031
▁interviews	-11.0032
▁produc	-11.0038
▁che	-11.0042
▁SO	-11.0046
Komodo	-11.0047
famous	-11.0047
Christian	-11.0048
Michael	-11.0048
video	-11.0048
scene	-11.0049
See	-11.0051
father	-11.0053
dead	-11.0053
mark	-11.0054
usual	-11.0054
lon	-11.0055
▁---	-11.0061
his	-11.0063
Bad	-11.0063
▁Hey	-11.0067
▁surround	-11.0068
▁wander	-11.0068
▁corn	-11.007
▁impress	-11.0071
uthern	-11.0077
dam	-11.0077
Of	-11.0078
break	-11.0083
▁wor	-11.009
▁hysterical	-11.0091
ility	-11.0091
▁haunt	-11.0095
ith	-11.0098
▁dirt	-11.0099
LL	-11.0101
▁sleaz	-11.0104
cro	-11.0105
▁Africa	-11.0109
▁admire	-11.011
tun	-11.0111
▁theaters	-11.0113
rough	-11.0115
ollywood	-11.012
▁pig	-11.0121
▁vanish	-11.0122
conscious	-11.0122
▁suspen	-11.0123
▁protect	-11.0124
▁confess	-11.0124
VERY	-11.0125
Spoiler	-11.0125
▁specific	-11.0125
abo	-11.0126
▁REAL	-11.0127
▁broad	-11.0127
convict	-11.0127
Cimarron	-11.0127
conservative	-11.0127
–	-11.0127
▁Academy	-11.0127
▁Calvin	-11.0127
▁Cravat	-11.0127
▁England	-11.0127
▁Gordon	-11.0127
▁Jewish	-11.0127
▁LOVE	-11.0127
▁NEVER	-11.0127
▁Pimpernel	-11.0127
▁Pontypool	-11.0127
▁Rourke	-11.0127
▁Segal	-11.0127
▁Simmons	-11.0127
▁advantage	-11.0127
▁blockbuster	-11.0127
▁champion	-11.0127
▁chupacabra	-11.0127
▁clumsy	-11.0127
▁depressed	-11.0127
▁derivative	-11.0127
▁determin	-11.0127
▁embarrassed	-11.0127
▁generous	-11.0127
▁gimmick	-11.0127
▁guarantee	-11.0127
▁inconsistent	-11.0127
▁jazz	-11.0127
▁massacre	-11.0127
▁mirror	-11.0127
▁nurse	-11.0127
▁obscure	-11.0127
▁ordinary	-11.0127
▁politics	-11.0127
▁racist	-11.0127
▁sacrifice	-11.0127
▁silver	-11.0127
▁sloppy	-11.0127
▁stilted	-11.0127
▁unfair	-11.0127
▁vault	-11.0127
▁widow	-11.0127
▁wrestler	-11.0127
▁Gabriel	-11.0127
▁Shaw	-11.0127
▁Zeus	-11.0127
▁balance	-11.0127
▁edgy	-11.0127
▁imitation	-11.0127
▁incident	-11.0127
▁thorough	-11.0127
▁Miller	-11.0127
▁Shame	-11.0127
▁quiet	-11.0127
▁ultra	-11.0127
▁Underworld	-11.0127
▁fame	-11.0127
▁thru	-11.0127
▁troop	-11.0127
▁internet	-11.0127
▁limp	-11.0127
▁Arab	-11.0127
▁LOT	-11.0127
▁gift	-11.0127
▁banal	-11.0127
▁paranoi	-11.0127
▁Henry	-11.0127
▁sneak	-11.0127
▁entry	-11.0127
▁Jaws	-11.0127
▁immortal	-11.0127
▁grandmother	-11.0127
▁spooky	-11.0127
▁Smithee	-11.0127
▁Power	-11.0127
▁urge	-11.0127
▁task	-11.0127
▁stale	-11.0127
numbing	-11.0127
valent	-11.0127
▁Cannes	-11.0127
▁foreign	-11.0127
▁behave	-11.0127
▁Evans	-11.0127
▁Olivi	-11.0127
▁abrupt	-11.0127
▁journ	-11.0127
DAY	-11.0127
▁Navy	-11.0127
▁marry	-11.0127
▁Women	-11.0127
▁presumably	-11.0128
▁geek	-11.0128
▁Sunday	-11.0128
▁Nazi	-11.0128
▁dismal	-11.0128
▁lord	-11.0128
▁bird	-11.0128
▁private	-11.0128
sensiti	-11.0128
▁Isabelle	-11.0128
▁electric	-11.0128
▁guide	-11.0128
▁possession	-11.0128
▁punishment	-11.0128
▁exaggerated	-11.0128
▁Sophi	-11.0129
▁closing	-11.0129
▁Emma	-11.0129
▁harm	-11.0129
▁pressure	-11.0129
▁imagery	-11.0129
▁chain	-11.0129
▁foul	-11.0129
▁rain	-11.0129
▁clock	-11.0129
▁Baker	-11.013
▁ray	-11.013
▁resort	-11.013
▁Chain	-11.013
▁FX	-11.013
▁unbearable	-11.013
▁nonexistent	-11.013
▁mansion	-11.013
▁Univers	-11.0131
▁fence	-11.0131
▁Leoni	-11.0131
▁Baldwin	-11.0132
▁celluloid	-11.0132
▁irrelevant	-11.0132
▁Mother	-11.0132
▁2/10	-11.0132
▁Goodman	-11.0132
▁mock	-11.0132
▁2000	-11.0132
▁Uwe	-11.0132
▁guest	-11.0133
▁sadistic	-11.0134
▁Hunter	-11.0134
▁Right	-11.0134
▁everywhere	-11.0134
▁Asia	-11.0134
▁Jackie	-11.0135
▁imprisoned	-11.0135
▁ego	-11.0135
*1/2	-11.0135
▁Christie	-11.0135
▁fancy	-11.0136
▁Gary	-11.0137
Homecoming	-11.0137
▁overlook	-11.0137
▁Six	-11.0137
▁sold	-11.0138
▁Fright	-11.0138
▁depiction	-11.0138
▁Whatever	-11.0139
▁Daniel	-11.014
▁1/2	-11.014
▁UK	-11.0142
THING	-11.0142
erior	-11.0143
▁turd	-11.0144
▁superb	-11.0144
▁hopefully	-11.0145
▁Fall	-11.0145
ground	-11.0146
▁Furthermore	-11.0149
▁Scout	-11.0149
▁offended	-11.0149
▁24	-11.0149
▁WHY	-11.0149
▁pause	-11.0152
▁press	-11.0153
▁$2	-11.0154
illa	-11.0155
▁investigating	-11.0155
▁dear	-11.0155
▁hopeless	-11.0156
▁Mick	-11.0157
▁partner	-11.0158
90	-11.0159
ief	-11.0162
▁bond	-11.0166
▁Ghost	-11.0166
name	-11.0166
▁cooking	-11.0167
▁grabb	-11.0169
▁Macy	-11.0169
▁investigate	-11.0171
▁stalk	-11.0171
▁Pare	-11.0173
▁Mist	-11.0174
▁menu	-11.0174
rick	-11.0177
▁Save	-11.0177
▁annoyed	-11.0178
▁flawed	-11.0179
▁handled	-11.0182
▁vision	-11.0189
Ryn	-11.0195
ggy	-11.0196
▁stupidest	-11.0199
rous	-11.0205
▁visually	-11.0206
▁user	-11.0208
▁cheated	-11.0211
▁reasonable	-11.0211
Car	-11.0212
▁correctly	-11.0215
▁related	-11.022
▁twi	-11.0229
▁fooled	-11.0231
aked	-11.0233
▁Card	-11.0238
▁mate	-11.0242
gard	-11.0244
▁SPOILER	-11.0248
▁training	-11.0249
▁Germany	-11.0251
▁relationships	-11.0255
▁Andrews	-11.0256
▁loosely	-11.0257
▁charming	-11.0261
acted	-11.0271
X	-11.0279
▁Davies	-11.028
▁awhile	-11.0281
▁Gian	-11.0282
?!?	-11.0282
▁brains	-11.0283
▁motives	-11.0285
▁purchase	-11.0289
▁dimensional	-11.0293
olf	-11.0298
▁referr	-11.0299
▁Grant	-11.0304
▁hanging	-11.0305
▁Arm	-11.0305
▁***	-11.0305
ham	-11.0312
▁aristocrat	-11.0319
▁rot	-11.0338
aving	-11.0346
atory	-11.0346
▁san	-11.035
▁seeking	-11.0354
jo	-11.0355
▁row	-11.0356
NN	-11.0363
▁Pi	-11.0369
▁ninjas	-11.0372
hal	-11.0373
AST	-11.0377
beat	-11.0393
▁nightmares	-11.0402
▁lately	-11.0414
▁reache	-11.0418
▁fly	-11.0425
▁lett	-11.0433
▁topic	-11.0489
ella	-11.0491
rock	-11.0541
▁beating	-11.0544
▁tool	-11.0549
▁UFOs	-11.0549
▁rules	-11.055
abb	-11.0576
▁ignoran	-11.0584
ENT	-11.0597
rent	-11.0612
▁reports	-11.0613
▁summ	-11.0616
▁maker	-11.0619
lk	-11.0621
▁masks	-11.0639
▁shak	-11.0641
ONE	-11.0661
rig	-11.0681
▁visuals	-11.0732
▁grows	-11.0735
▁stare	-11.0741
▁westerns	-11.076
▁continu	-11.0761
▁Mee	-11.0779
▁medi	-11.08
efore	-11.0802
▁LA	-11.0806
▁Adam	-11.0811
▁BL	-11.0822
▁Chi	-11.0842
▁Ring	-11.0846
▁11	-11.0863
▁tr	-11.0877
blown	-11.0885
▁Cut	-11.0887
▁jumps	-11.0888
▁Sch	-11.0896
TO	-11.0917
▁disco	-11.0921
▁scares	-11.0925
Sp	-11.0941
▁improv	-11.0942
ji	-11.0946
▁exceptions	-11.0948
ological	-11.0952
▁mins	-11.0958
anning	-11.0961
list	-11.0962
cop	-11.0963
▁ninja	-11.097
▁explosion	-11.0974
erie	-11.0979
▁Ava	-11.098
▁skill	-11.0992
▁weapon	-11.0993
ability	-11.1004
▁sport	-11.1006
gin	-11.1009
ato	-11.1015
BO	-11.1018
Speak	-11.1019
bsolutely	-11.1029
spect	-11.1038
▁pal	-11.1044
did	-11.1049
▁hunter	-11.1057
ficial	-11.1061
▁trap	-11.1076
▁creep	-11.1077
IDE	-11.1081
▁deform	-11.1089
▁sca	-11.1091
▁mode	-11.1091
▁bite	-11.1097
▁wood	-11.1103
Death	-11.1113
▁Run	-11.1114
▁expos	-11.1131
craft	-11.1155
Next	-11.1155
Zombie	-11.1158
Avoid	-11.1158
Where	-11.1159
Please	-11.1159
rian	-11.1159
minute	-11.1159
doubt	-11.1159
flick	-11.1159
Star	-11.116
script	-11.116
scary	-11.116
because	-11.116
forward	-11.1161
turn	-11.1162
Jim	-11.1163
great	-11.1164
Night	-11.1164
SPOILERS	-11.1166
fight	-11.1169
▁identi	-11.1172
rett	-11.1174
▁photograph	-11.118
Here	-11.1185
▁establish	-11.1185
except	-11.1186
▁Rid	-11.119
witt	-11.12
llar	-11.12
▁convenient	-11.1202
▁bla	-11.1205
Pro	-11.1209
▁pin	-11.121
▁rif	-11.1213
hand	-11.1217
▁unbelievabl	-11.1217
▁quit	-11.1219
▁stole	-11.1222
hrow	-11.1225
▁transform	-11.1232
▁Water	-11.1233
▁Europe	-11.1235
▁Job	-11.1235
▁Patric	-11.1235
lectric	-11.1236
▁Count	-11.1236
rivate	-11.1237
▁punish	-11.1237
conceiv	-11.1238
ñ	-11.1238
▁Spielberg	-11.1238
▁ridicule	-11.1238
▁throat	-11.1238
▁unwatchable	-11.1238
▁vomit	-11.1238
Acacia	-11.1238
ergeant	-11.1238
indulgent	-11.1238
▁Actor	-11.1238
▁Angelique	-11.1238
▁Argento	-11.1238
▁Astaire	-11.1238
▁Buscemi	-11.1238
▁Children	-11.1238
▁Galactica	-11.1238
▁Hospital	-11.1238
▁Krige	-11.1238
▁Mexican	-11.1238
▁Picture	-11.1238
▁Stratten	-11.1238
▁Wilson	-11.1238
▁adequate	-11.1238
▁bargain	-11.1238
▁biography	-11.1238
▁bounty	-11.1238
▁contemporary	-11.1238
▁crawl	-11.1238
▁divorce	-11.1238
▁enemies	-11.1238
▁enthusiasm	-11.1238
▁evoke	-11.1238
▁explosive	-11.1238
▁fantasies	-11.1238
▁flimsy	-11.1238
▁giggle	-11.1238
▁inspiration	-11.1238
▁irritate	-11.1238
▁journalist	-11.1238
▁mediocrity	-11.1238
▁monotone	-11.1238
▁nervous	-11.1238
▁nowadays	-11.1238
▁outrageous	-11.1238
▁participat	-11.1238
▁perspective	-11.1238
▁pleasant	-11.1238
▁possibility	-11.1238
▁prequel	-11.1238
▁profound	-11.1238
▁pseudo	-11.1238
▁racism	-11.1238
▁recognition	-11.1238
▁resource	-11.1238
▁schlock	-11.1238
▁silence	-11.1238
▁simulat	-11.1238
▁statue	-11.1238
▁technology	-11.1238
▁zoom	-11.1238
▁Burke	-11.1238
▁Byrne	-11.1238
▁Katie	-11.1238
▁believing	-11.1238
▁recycled	-11.1238
▁supreme	-11.1238
Compton	-11.1238
▁Hawk	-11.1238
▁absent	-11.1238
▁filth	-11.1238
▁gritty	-11.1238
▁inhabit	-11.1238
▁racial	-11.1238
▁transfer	-11.1238
▁/>4/10	-11.1238
▁Price	-11.1238
▁welcome	-11.1238
▁/>3/10	-11.1238
▁Smile	-11.1238
▁telephone	-11.1238
▁region	-11.1238
▁corrupt	-11.1238
▁Tweed	-11.1238
▁burst	-11.1238
▁remarks	-11.1238
▁tiring	-11.1238
▁Natas	-11.1238
▁exceed	-11.1238
▁heaven	-11.1238
▁Awful	-11.1238
▁Graham	-11.1238
▁raw	-11.1238
▁oppos	-11.1238
▁debt	-11.1238
▁betray	-11.1238
▁alarm	-11.1238
▁Fast	-11.1238
▁Bradley	-11.1238
▁gripping	-11.1239
▁spread	-11.1239
▁Hayes	-11.1239
▁Pimp	-11.1239
▁kung	-11.1239
▁barbershop	-11.1239
▁bumbl	-11.1239
▁Castro	-11.1239
▁thumb	-11.1239
▁caption	-11.1239
▁glass	-11.1239
▁Bay	-11.1239
▁flee	-11.1239
▁aircraft	-11.1239
▁tonight	-11.1239
▁uncomfortable	-11.1239
▁sentimental	-11.1239
▁surrealism	-11.124
▁exploration	-11.124
▁executive	-11.124
▁roof	-11.124
▁jock	-11.124
▁reject	-11.124
▁trite	-11.124
▁missile	-11.124
▁injur	-11.124
▁swing	-11.1241
rural	-11.1241
▁laid	-11.1241
▁duty	-11.1241
▁equi	-11.1241
▁Barry	-11.1241
▁hideous	-11.1242
▁foolish	-11.1242
▁EVERY	-11.1242
▁narration	-11.1242
▁Latin	-11.1242
▁Mason	-11.1242
▁thick	-11.1243
UR	-11.1243
▁worried	-11.1243
▁princess	-11.1243
▁cinematographer	-11.1243
▁Neil	-11.1244
▁involvement	-11.1244
▁Bond	-11.1244
▁toilet	-11.1244
▁abduction	-11.1245
▁Thos	-11.1245
▁flight	-11.1246
▁scrap	-11.1246
▁pitiful	-11.1246
▁Pres	-11.1246
▁nerd	-11.1246
▁labor	-11.1247
▁Stick	-11.1248
▁personality	-11.1249
▁Weber	-11.1249
▁Italy	-11.1249
▁bold	-11.1249
▁Brand	-11.125
▁grainy	-11.125
▁spoken	-11.125
▁path	-11.125
uous	-11.1251
▁MAN	-11.1251
▁ironic	-11.1252
▁Fang	-11.1253
▁Meanwhile	-11.1253
▁Original	-11.1253
▁inherit	-11.1253
▁Low	-11.1253
▁Music	-11.1253
▁Direction	-11.1254
▁belt	-11.1254
▁settle	-11.1255
▁loss	-11.1256
▁inspire	-11.1257
▁frequently	-11.1257
▁Q	-11.1257
▁defend	-11.1259
▁hesita	-11.1259
▁humanity	-11.126
▁honor	-11.1263
▁Queen	-11.1263
▁faithful	-11.1264
▁Quick	-11.1266
▁Vall	-11.1266
▁tax	-11.1267
▁Hence	-11.1267
▁outcome	-11.1267
itz	-11.1268
▁Box	-11.1269
▁scheme	-11.1269
▁laughter	-11.1272
▁Arthur	-11.1272
▁Friday	-11.1272
▁compos	-11.1275
▁Nash	-11.1275
▁satisfying	-11.1276
▁padding	-11.1277
▁Alas	-11.1278
▁Finally	-11.1282
▁tin	-11.1282
hear	-11.1285
▁characteristic	-11.1288
▁reel	-11.1288
▁Made	-11.1291
▁accompani	-11.1292
▁senseless	-11.1292
▁PC	-11.1294
▁Believ	-11.1294
▁Within	-11.1297
▁overacting	-11.1298
▁inject	-11.1299
▁Play	-11.1303
▁removed	-11.1303
▁spy	-11.1303
▁surrounding	-11.1304
▁Hand	-11.1305
▁spare	-11.1305
ousin	-11.1305
▁invented	-11.1307
stopping	-11.1308
▁ape	-11.1311
▁Party	-11.1311
▁mistaken	-11.1311
▁refused	-11.1312
▁established	-11.1314
▁Brad	-11.1314
▁critters	-11.1319
▁cake	-11.1319
▁Next	-11.1321
▁farce	-11.1322
▁centered	-11.1325
▁achieved	-11.1326
▁boot	-11.1326
▁tail	-11.1343
▁lying	-11.1344
▁height	-11.1344
▁manager	-11.1347
miss	-11.1364
▁Poe	-11.1365
▁stated	-11.1367
▁ru	-11.1376
▁segments	-11.1384
mall	-11.1393
▁slid	-11.1396
▁fate	-11.1397
20	-11.1403
EAR	-11.1404
▁Eve	-11.1405
▁hilariously	-11.1414
▁Nin	-11.1422
▁insulting	-11.1432
aries	-11.1437
▁Band	-11.1439
▁Daw	-11.144
▁shirts	-11.1449
▁sitcoms	-11.1449
.......	-11.1453
rman	-11.146
▁fest	-11.1469
▁cards	-11.1481
▁rebels	-11.1482
▁terrorists	-11.1482
▁fingers	-11.1482
▁Republican	-11.1484
▁AC	-11.1513
fire	-11.1514
▁Ko	-11.154
actors	-11.1541
▁Vinn	-11.1545
erg	-11.1551
▁harder	-11.1558
15	-11.1562
▁arc	-11.1566
shing	-11.1568
▁beautifully	-11.157
▁infinite	-11.158
▁requires	-11.1582
▁Ger	-11.1584
▁sin	-11.1586
▁bones	-11.159
Desp	-11.1594
tha	-11.1596
▁panic	-11.1609
▁intentions	-11.162
finitely	-11.1622
▁Your	-11.1623
▁rat	-11.1635
▁popp	-11.1636
sai	-11.1642
▁rap	-11.1654
Micheal	-11.1657
▁gate	-11.1658
udge	-11.1662
▁lovers	-11.1704
▁hearing	-11.1713
▁Girls	-11.1714
▁concerns	-11.1717
▁dig	-11.1721
▁brave	-11.1735
▁su	-11.1742
▁contribute	-11.1743
eez	-11.1763
▁mentioning	-11.1768
mal	-11.1783
▁domin	-11.1787
▁cheaply	-11.18
▁Mor	-11.1811
▁forty	-11.1815
▁communicate	-11.182
uge	-11.185
▁Leon	-11.1871
▁awards	-11.189
Lady	-11.1891
aut	-11.1901
oxic	-11.1912
▁cata	-11.1916
▁17	-11.1942
▁IV	-11.1952
▁Gil	-11.1957
▁critic	-11.1972
▁Bra	-11.1973
▁ME	-11.1995
▁Wo	-11.2012
▁Note	-11.2035
▁dare	-11.204
▁redeem	-11.2051
Sh	-11.2062
▁Bro	-11.2073
gro	-11.209
▁sla	-11.212
▁dish	-11.2122
rich	-11.213
▁predict	-11.2139
Or	-11.2166
▁generate	-11.2172
main	-11.2174
mish	-11.2179
ima	-11.2182
▁eight	-11.22
▁Amazon	-11.2219
▁finger	-11.2219
▁rebel	-11.2222
▁Fun	-11.2248
▁Strange	-11.2265
▁terrorist	-11.2278
ANT	-11.2305
ware	-11.2313
ently	-11.2326
▁instant	-11.2331
cat	-11.2367
EST	-11.2368
AND	-11.2404
Elephant	-11.2404
Honestly	-11.2405
hunter	-11.2405
funny	-11.2406
Oldboy	-11.2408
Okay	-11.2408
Hellraiser	-11.2408
Robert	-11.2409
husband	-11.2409
high	-11.241
character	-11.241
people	-11.241
actress	-11.241
will	-11.241
60	-11.241
motion	-11.2411
▁arm	-11.2411
Look	-11.2413
load	-11.242
▁circu	-11.2422
series	-11.2423
▁chill	-11.2428
▁fascinat	-11.243
▁Unc	-11.2431
▁grab	-11.2435
▁arrest	-11.2436
▁Str	-11.2437
God	-11.2438
cast	-11.2448
umble	-11.2452
▁rapid	-11.2452
▁ultimate	-11.2454
▁unfortunate	-11.2454
hold	-11.2456
▁village	-11.2458
▁jerk	-11.2458
▁faith	-11.2459
▁desire	-11.2459
▁marrie	-11.246
▁fade	-11.246
▁necessar	-11.246
▁Hope	-11.246
Rest	-11.2465
▁replace	-11.2467
▁styl	-11.2469
▁chose	-11.247
▁origin	-11.2471
▁crow	-11.2471
ould	-11.2478
▁sandwich	-11.2481
▁ficti	-11.2484
▁compet	-11.2484
▁emphasi	-11.2486
onsidering	-11.2486
▁Japan	-11.2487
www	-11.2488
>	-11.2488
▁Fontaine	-11.2488
▁Swayze	-11.2488
▁buddies	-11.2488
▁ethnic	-11.2488
▁gigantic	-11.2488
▁phenomen	-11.2488
▁smirk	-11.2488
▁unleash	-11.2488
Fortunately	-11.2488
Piranha	-11.2488
SCAR	-11.2488
_	-11.2488
corporate	-11.2488
isfortune	-11.2488
provoking	-11.2488
▁ALERT	-11.2488
▁Deuce	-11.2488
▁Eventually	-11.2488
▁Festival	-11.2488
▁Harris	-11.2488
▁IMDB	-11.2488
▁KNOW	-11.2488
▁Lambs	-11.2488
▁Lampoon	-11.2488
▁Lillith	-11.2488
▁Louisiana	-11.2488
▁Marceau	-11.2488
▁Pennsylvania	-11.2488
▁Pidgeon	-11.2488
▁Pullman	-11.2488
▁Springer	-11.2488
▁Surveillance	-11.2488
▁Wagner	-11.2488
▁Washington	-11.2488
▁applaud	-11.2488
▁atmospheric	-11.2488
▁beneath	-11.2488
▁citizen	-11.2488
▁consequence	-11.2488
▁contract	-11.2488
▁crucial	-11.2488
▁embarrassment	-11.2488
▁entrance	-11.2488
▁evident	-11.2488
▁gesture	-11.2488
▁guitar	-11.2488
▁hackneyed	-11.2488
▁ingredient	-11.2488
▁instrument	-11.2488
▁kitchen	-11.2488
▁knife	-11.2488
▁lackluster	-11.2488
▁lovable	-11.2488
▁mainstream	-11.2488
▁monologue	-11.2488
▁newspaper	-11.2488
▁ourselves	-11.2488
▁precious	-11.2488
▁profanity	-11.2488
▁prominent	-11.2488
▁pursuit	-11.2488
▁puzzling	-11.2488
▁rambling	-11.2488
▁relevant	-11.2488
▁response	-11.2488
▁satisfied	-11.2488
▁strung	-11.2488
▁sufficient	-11.2488
▁suspicion	-11.2488
▁sustain	-11.2488
▁terrifying	-11.2488
▁tragedy	-11.2488
▁universe	-11.2488
▁void	-11.2488
▁yesterday	-11.2488
Certain	-11.2488
▁Cylon	-11.2488
▁POW	-11.2488
▁Street	-11.2488
▁Venus	-11.2488
▁fortunate	-11.2488
▁provocative	-11.2488
▁resume	-11.2488
▁venture	-11.2488
▁measure	-11.2488
▁rehash	-11.2488
▁declare	-11.2488
▁eager	-11.2488
▁Davis	-11.2488
▁motorcycle	-11.2488
▁pump	-11.2488
▁choreograph	-11.2488
▁wicked	-11.2488
▁jaw	-11.2488
▁spill	-11.2488
▁Thanksgiving	-11.2488
▁pitch	-11.2488
▁Bennet	-11.2488
▁loyal	-11.2488
▁Storm	-11.2488
▁Phillip	-11.2488
▁ambitious	-11.2488
▁Eastwood	-11.2488
▁pray	-11.2488
▁storm	-11.2488
▁excruciating	-11.2488
▁queen	-11.2488
▁derive	-11.2488
▁protest	-11.2488
▁blend	-11.2488
▁mechani	-11.2488
▁Lambert	-11.2488
▁funeral	-11.2488
▁magazine	-11.2488
▁wealth	-11.2488
▁Madsen	-11.2488
▁shift	-11.2488
▁impersonat	-11.2488
▁composition	-11.2488
▁Plot	-11.2488
▁shines	-11.2488
▁conceived	-11.2488
▁vital	-11.2488
▁enlist	-11.2488
▁favourite	-11.2488
▁saga	-11.2488
▁Clark	-11.2488
▁lyric	-11.2488
▁backwards	-11.2488
▁employee	-11.2489
▁afterwards	-11.2489
▁chief	-11.2489
inducing	-11.2489
▁leather	-11.2489
▁discount	-11.2489
▁discern	-11.2489
▁population	-11.2489
▁$5	-11.2489
▁prospect	-11.2489
▁charismatic	-11.2489
Phase	-11.2489
▁excessive	-11.2489
▁loving	-11.2489
▁Raj	-11.2489
▁horn	-11.2489
▁superhero	-11.2489
▁Selma	-11.2489
▁straightforward	-11.2489
▁cloud	-11.2489
▁Irish	-11.2489
▁tramp	-11.2489
▁Simpson	-11.2489
▁Rich	-11.2489
▁Triangle	-11.2489
▁Kind	-11.2489
▁elevator	-11.2489
▁Zach	-11.249
▁assistant	-11.249
▁Wolf	-11.249
▁nuance	-11.249
▁fond	-11.249
▁alter	-11.249
▁yard	-11.249
▁Turkey	-11.249
▁existence	-11.249
▁85	-11.2491
▁wrist	-11.2491
▁haircut	-11.2491
uzz	-11.2491
▁Unlike	-11.2491
▁jug	-11.2491
▁confession	-11.2491
▁hunk	-11.2492
▁subtlety	-11.2492
▁Jackson	-11.2492
▁interaction	-11.2492
▁block	-11.2492
▁construction	-11.2493
▁3000	-11.2493
▁slick	-11.2493
▁Carey	-11.2493
▁ballet	-11.2493
▁steel	-11.2493
▁conventional	-11.2493
Hey	-11.2493
▁shall	-11.2494
▁guts	-11.2494
▁Guttenberg	-11.2494
▁distraction	-11.2495
▁scarier	-11.2495
▁SciFi	-11.2495
ville	-11.2496
▁WOR	-11.2497
▁jet	-11.2497
▁Chile	-11.2497
▁Hold	-11.2497
▁snow	-11.2497
▁200	-11.2498
▁buri	-11.2498
▁washed	-11.2498
▁noticeable	-11.2499
▁lean	-11.2499
▁Mont	-11.2499
▁fitting	-11.2499
▁tv	-11.25
▁Lorre	-11.25
▁vile	-11.2501
▁buff	-11.2501
▁questionable	-11.2502
▁firm	-11.2502
▁composer	-11.2502
▁iron	-11.2502
▁daylight	-11.2502
▁Bible	-11.2502
▁demonic	-11.2504
Short	-11.2505
▁Hercules	-11.2505
▁Seaview	-11.2505
▁revolutionary	-11.2505
▁SNL	-11.2505
▁flashes	-11.2505
▁dub	-11.2505
▁WH	-11.2506
▁Antoni	-11.2506
▁GL	-11.2508
iallo	-11.2509
▁Gate	-11.2509
▁stray	-11.251
▁shred	-11.2511
▁dust	-11.2511
▁wave	-11.2512
▁lonely	-11.2512
▁useful	-11.2512
▁2001	-11.2513
▁substantial	-11.2514
▁partially	-11.2514
▁cue	-11.2515
▁Shar	-11.2515
▁enjoyment	-11.2516
▁Pacific	-11.2516
▁strict	-11.2516
▁Typical	-11.2516
▁Sever	-11.2517
▁everyday	-11.2517
▁weakest	-11.2518
Sean	-11.2519
▁Heck	-11.2521
▁Kel	-11.2523
Last	-11.2524
▁bashing	-11.2524
▁Opera	-11.2525
▁gather	-11.2525
▁dubbed	-11.2527
La	-11.2528
▁Probably	-11.253
sort	-11.253
▁dresses	-11.253
▁hall	-11.2531
▁pad	-11.2532
▁butcher	-11.2533
▁assault	-11.2534
▁proof	-11.2534
▁cheapest	-11.2536
▁OUT	-11.2539
▁dire	-11.2539
▁coat	-11.2542
▁Mall	-11.2543
▁mill	-11.2545
▁Curse	-11.2549
▁blast	-11.2552
▁Eden	-11.2553
▁wow	-11.2558
▁suitabl	-11.2559
▁Call	-11.256
▁=	-11.2561
▁Bottom	-11.2561
▁witnessed	-11.2567
▁lik	-11.2569
▁stake	-11.2571
▁Honestly	-11.2572
▁starters	-11.2573
▁entertained	-11.2574
▁CD	-11.2575
▁apt	-11.2575
cial	-11.2577
▁Roy	-11.2578
▁marginal	-11.2578
▁Lor	-11.2579
▁recreat	-11.2579
▁closeup	-11.2582
▁Ward	-11.2582
state	-11.2585
▁repeated	-11.2586
?????	-11.2586
▁crav	-11.2593
▁robb	-11.2594
▁Rea	-11.2602
▁belly	-11.2606
▁bound	-11.2614
▁bob	-11.2616
▁staged	-11.2624
▁randomly	-11.2636
▁$1	-11.2636
▁bay	-11.2636
▁Eva	-11.2637
itting	-11.2637
▁returning	-11.2641
▁List	-11.2644
▁cleaning	-11.2644
▁repeating	-11.2645
▁blowing	-11.2646
▁operate	-11.2648
▁eater	-11.2649
plications	-11.2652
▁claimed	-11.2654
▁growing	-11.2657
▁losers	-11.2657
▁positively	-11.2675
▁Lou	-11.2678
▁ok	-11.2681
▁workers	-11.2682
▁heap	-11.2685
survivor	-11.2685
▁camping	-11.2688
give	-11.2705
Buck	-11.2717
yet	-11.2718
▁site	-11.2719
▁touching	-11.2726
▁hungr	-11.2728
▁conversations	-11.2729
▁shy	-11.2734
▁lad	-11.274
▁pann	-11.2744
▁pan	-11.2749
▁card	-11.2753
understood	-11.2758
tua	-11.2762
▁Amazons	-11.2767
vie	-11.277
makers	-11.2778
▁Chris	-11.2791
▁curse	-11.2791
Mad	-11.2792
▁noir	-11.2795
astic	-11.2803
▁2:	-11.2809
▁hunters	-11.281
▁AT	-11.2816
▁Far	-11.2833
fall	-11.2849
$	-11.2853
▁forgiving	-11.2857
utter	-11.2873
▁mountains	-11.288
new	-11.2888
▁checked	-11.2903
▁plann	-11.2905
thirsty	-11.2908
▁posted	-11.2913
▁users	-11.293
▁Mal	-11.2936
▁Sheen	-11.2944
vision	-11.2955
▁Qui	-11.2958
▁TH	-11.2973
Abo	-11.2991
▁Tro	-11.2999
inister	-11.3027
▁differently	-11.3035
▁AN	-11.3059
▁packag	-11.3066
wit	-11.3141
rake	-11.3148
bar	-11.3158
▁HO	-11.3162
▁edit	-11.3166
▁Ji	-11.3184
minded	-11.3187
▁mature	-11.3189
posing	-11.3203
▁Hal	-11.3229
▁Stu	-11.325
anti	-11.325
tant	-11.3257
verse	-11.3313
▁imper	-11.3314
▁spott	-11.3328
lmost	-11.3328
▁San	-11.3329
▁spa	-11.3337
UST	-11.3364
Yanc	-11.3377
je	-11.3413
ASS	-11.3417
▁Alic	-11.3417
Rating	-11.3423
agged	-11.3423
paced	-11.3426
▁Dep	-11.3429
hole	-11.3434
mouthed	-11.3445
▁Tea	-11.3479
relatively	-11.3494
numbers	-11.3518
hip	-11.3529
▁torch	-11.3584
while	-11.3614
stood	-11.362
▁overact	-11.3631
cross	-11.3636
▁conversation	-11.3645
▁mile	-11.3651
▁sitcom	-11.3654
▁goat	-11.3666
enne	-11.3667
ccording	-11.37
upp	-11.3711
rmed	-11.3715
▁sur	-11.3717
▁sale	-11.3721
berg	-11.3725
title	-11.3726
▁Blood	-11.3739
▁Demon	-11.3746
▁react	-11.3746
▁$10	-11.375
▁explore	-11.378
ologist	-11.3789
▁Monk	-11.3789
▁shirt	-11.3794
▁wo	-11.3796
▁south	-11.3797
ju	-11.38
▁Julia	-11.3826
Bottom	-11.3833
=	-11.3833
original	-11.3834
place	-11.3834
Demon	-11.3835
shadow	-11.3836
count	-11.3837
William	-11.3837
Director	-11.3837
print	-11.3838
field	-11.3838
Most	-11.3838
Master	-11.3838
white	-11.3838
DVD	-11.3838
Nothing	-11.3839
master	-11.3841
half	-11.3842
loud	-11.3843
Every	-11.3843
tail	-11.3845
posed	-11.3846
demon	-11.3846
Bill	-11.3848
Gian	-11.3849
▁cloth	-11.3849
type	-11.385
▁elaborate	-11.3851
▁$3	-11.3853
directed	-11.3858
crew	-11.3858
▁flop	-11.3861
▁cook	-11.3863
▁Mom	-11.3864
▁threaten	-11.3869
▁engine	-11.387
▁consum	-11.3871
▁bow	-11.3871
hour	-11.3872
order	-11.3876
▁reminisce	-11.3877
▁rush	-11.3878
ector	-11.3879
▁distinct	-11.3879
ipped	-11.3886
▁trail	-11.3891
pop	-11.3891
▁tire	-11.3891
▁Jess	-11.3896
▁unnecessar	-11.3896
▁challenge	-11.39
▁concentrate	-11.3908
▁abduct	-11.3908
▁prince	-11.3909
▁posse	-11.391
▁confront	-11.3913
▁comfort	-11.3913
▁authentic	-11.3913
▁service	-11.3913
▁complex	-11.3914
▁locat	-11.3914
▁Laugh	-11.3914
etective	-11.3915
▁wanna	-11.3915
quot	-11.3916
▁elect	-11.3916
matic	-11.3916
▁pun	-11.3916
]	-11.3916
absorb	-11.3916
Admittedly	-11.3916
Cleopatra	-11.3916
Seymour	-11.3916
▁1982	-11.3916
▁Afghanistan	-11.3916
▁Britain	-11.3916
▁Brooklyn	-11.3916
▁Catherine	-11.3916
▁Central	-11.3916
▁Chicago	-11.3916
▁Connor	-11.3916
▁Craig	-11.3916
▁Dallesandro	-11.3916
▁Fonda	-11.3916
▁Franco	-11.3916
▁Iraq	-11.3916
▁Lloyd	-11.3916
▁Mitchell	-11.3916
▁Oklahoma	-11.3916
▁Philip	-11.3916
▁Puppet	-11.3916
▁Python	-11.3916
▁Raymond	-11.3916
▁Rohmer	-11.3916
▁SFX	-11.3916
▁STILL	-11.3916
▁Scarlet	-11.3916
▁Shakespeare	-11.3916
▁Sherawat	-11.3916
▁Stupid	-11.3916
▁Varney	-11.3916
▁Warhol	-11.3916
▁antagonist	-11.3916
▁arguing	-11.3916
▁argument	-11.3916
▁autobiography	-11.3916
▁babies	-11.3916
▁behaviour	-11.3916
▁clunky	-11.3916
▁completists	-11.3916
▁conclude	-11.3916
▁dedicate	-11.3916
▁eliminat	-11.3916
▁elusive	-11.3916
▁expense	-11.3916
▁expensive	-11.3916
▁frantic	-11.3916
▁global	-11.3916
▁inaccurate	-11.3916
▁incorrect	-11.3916
▁infected	-11.3916
▁jewel	-11.3916
▁landscape	-11.3916
▁library	-11.3916
▁machinations	-11.3916
▁miraculous	-11.3916
▁murky	-11.3916
▁nauseating	-11.3916
▁nonsensical	-11.3916
▁obtain	-11.3916
▁occup	-11.3916
▁ocean	-11.3916
▁ominous	-11.3916
▁organization	-11.3916
▁parallel	-11.3916
▁patience	-11.3916
▁predecessor	-11.3916
▁rabbit	-11.3916
▁radioactive	-11.3916
▁redemption	-11.3916
▁sarcastic	-11.3916
▁simultaneously	-11.3916
▁skeptic	-11.3916
▁squeeze	-11.3916
▁striking	-11.3916
▁supermarket	-11.3916
▁translation	-11.3916
▁travesty	-11.3916
▁unimaginative	-11.3916
▁unpleasant	-11.3916
▁unsuspecting	-11.3916
[	-11.3916
distinguish	-11.3916
▁BORING	-11.3916
▁Example	-11.3916
▁Griswold	-11.3916
▁Spiderman	-11.3916
▁Thalluri	-11.3916
▁Toulon	-11.3916
▁artificial	-11.3916
▁athletic	-11.3916
▁client	-11.3916
▁drab	-11.3916
▁dreary	-11.3916
▁mysteries	-11.3916
▁sensational	-11.3916
▁tribute	-11.3916
▁unrecognizable	-11.3916
▁valid	-11.3916
▁Business	-11.3916
▁Complete	-11.3916
▁Conway	-11.3916
▁Egypt	-11.3916
▁chimp	-11.3916
▁immense	-11.3916
▁increasing	-11.3916
▁smell	-11.3916
▁warehouse	-11.3916
eographic	-11.3916
▁scandal	-11.3916
▁smack	-11.3916
▁countries	-11.3916
▁greet	-11.3916
▁prompt	-11.3916
keeper	-11.3917
▁Susan	-11.3917
▁extend	-11.3917
▁feast	-11.3917
▁option	-11.3917
Roseanne	-11.3917
▁casual	-11.3917
▁ensure	-11.3917
▁rotten	-11.3917
▁Talk	-11.3917
▁Airplane	-11.3917
▁lookalike	-11.3917
▁nevertheless	-11.3917
▁cultural	-11.3917
▁captor	-11.3917
▁detract	-11.3917
▁documentaries	-11.3917
▁Video	-11.3917
▁Tunny	-11.3917
▁Therefore	-11.3917
▁cheesie	-11.3917
▁Besides	-11.3917
▁Help	-11.3917
▁woeful	-11.3917
Spider	-11.3917
▁Boorman	-11.3917
▁gear	-11.3917
Friend	-11.3917
▁Production	-11.3917
▁comedic	-11.3917
▁command	-11.3917
▁Katt	-11.3917
UUU	-11.3917
▁LAME	-11.3917
Cheaters	-11.3917
▁biopic	-11.3917
▁stoned	-11.3917
▁kidnapped	-11.3917
▁Kurt	-11.3917
▁yawn	-11.3917
▁financial	-11.3917
▁Undead	-11.3917
▁ambition	-11.3917
▁exploitative	-11.3917
▁Depression	-11.3917
▁worms	-11.3917
▁neighborhood	-11.3917
▁drown	-11.3917
▁overdone	-11.3917
▁scatter	-11.3917
▁/>1/10	-11.3917
▁vengeance	-11.3917
▁Aunt	-11.3917
▁Finney	-11.3917
▁NOTHING	-11.3917
▁Western	-11.3917
▁Tyler	-11.3917
hhh	-11.3917
▁Crane	-11.3917
▁Extra	-11.3918
▁sincerely	-11.3918
▁snail	-11.3918
▁airplane	-11.3918
▁1990	-11.3918
▁desk	-11.3918
▁destruction	-11.3918
▁proceedings	-11.3918
▁navy	-11.3918
▁2004	-11.3918
wacky	-11.3918
▁Everybody	-11.3918
▁thou	-11.3918
▁alcoholic	-11.3918
▁cancel	-11.3918
▁whiny	-11.3918
▁medium	-11.3918
▁unnatural	-11.3918
▁Definitely	-11.3918
▁kiddie	-11.3918
▁distribution	-11.3918
▁Under	-11.3919
▁identity	-11.3919
▁continuous	-11.3919
▁trade	-11.3919
▁Duke	-11.3919
▁hammy	-11.3919
▁torment	-11.3919
▁punchline	-11.3919
▁progressive	-11.3919
▁Barred	-11.3919
▁indication	-11.3919
▁spaceship	-11.3919
▁cookie	-11.3919
▁rack	-11.3919
▁cruelty	-11.3919
▁customers	-11.3919
▁showcas	-11.3919
Albert	-11.392
▁lips	-11.392
uncle	-11.392
▁principal	-11.392
▁selection	-11.392
▁waist	-11.392
gray	-11.392
▁plate	-11.392
▁Hank	-11.392
characterisation	-11.392
▁secretary	-11.3921
▁Terror	-11.3921
▁stunk	-11.3921
▁assign	-11.3921
▁progression	-11.3921
▁meaningful	-11.3921
▁bubbles	-11.3921
▁reload	-11.3921
▁reek	-11.3921
▁pound	-11.3921
▁contribution	-11.3921
▁bump	-11.3921
▁Trent	-11.3921
▁Model	-11.3921
▁inmates	-11.3922
▁strain	-11.3922
Les	-11.3922
▁poop	-11.3922
▁letdown	-11.3922
▁Somehow	-11.3923
▁shade	-11.3923
▁favour	-11.3923
ALF	-11.3923
▁cents	-11.3923
▁undead	-11.3923
lew	-11.3923
▁formulaic	-11.3923
▁flam	-11.3923
▁complicated	-11.3923
▁Cheng	-11.3924
▁escap	-11.3924
▁glow	-11.3924
gender	-11.3924
▁Possibl	-11.3924
▁Vivi	-11.3925
▁Twi	-11.3925
▁rave	-11.3925
▁clone	-11.3926
▁Josh	-11.3926
▁fx	-11.3926
▁rocket	-11.3926
▁inconsistencies	-11.3926
▁batter	-11.3927
▁clueless	-11.3927
coherent	-11.3927
▁Must	-11.3927
▁Kong	-11.3927
▁slice	-11.3928
▁avenge	-11.3928
▁disturbed	-11.3929
▁madness	-11.3929
▁bait	-11.3929
achel	-11.393
▁scifi	-11.393
▁scant	-11.3931
▁tasteless	-11.3931
▁shameless	-11.3931
▁bang	-11.3931
▁Heuring	-11.3932
▁lifestyle	-11.3932
▁Lizzy	-11.3932
▁atrocity	-11.3932
1987	-11.3932
▁WW	-11.3933
▁Aga	-11.3933
▁Lance	-11.3934
▁Fight	-11.3934
▁spout	-11.3934
▁vast	-11.3935
▁smoking	-11.3936
▁crush	-11.3936
▁Forsyth	-11.3936
▁sophisticated	-11.3936
▁Batman	-11.3936
▁childish	-11.3936
▁Rememb	-11.3936
▁neglected	-11.3936
▁Tell	-11.3937
▁mistress	-11.3937
▁Think	-11.3937
▁nearby	-11.3938
▁21	-11.3938
ulous	-11.3938
▁Goth	-11.394
mins	-11.394
▁admirer	-11.3941
▁Sound	-11.3941
▁rout	-11.3941
▁engaged	-11.3942
xton	-11.3943
▁active	-11.3943
▁Rule	-11.3943
▁biased	-11.3944
▁hyper	-11.3946
▁comparable	-11.3947
incestuous	-11.3948
▁map	-11.3949
▁BUT	-11.3949
▁Heaven	-11.3949
▁carefully	-11.3949
▁tall	-11.395
▁Doug	-11.3952
▁attended	-11.3952
▁Louis	-11.3953
▁Kenne	-11.3953
Tiny	-11.3955
▁photographer	-11.3956
▁surf	-11.3956
ctivities	-11.3956
▁tenant	-11.3957
▁repeatedly	-11.3959
▁challenged	-11.3959
▁classes	-11.396
▁Dean	-11.396
▁corner	-11.3961
▁indie	-11.3961
▁quarters	-11.3962
▁expert	-11.3962
▁Rutge	-11.3963
28	-11.3963
▁preachy	-11.3963
▁improvise	-11.3963
▁ranger	-11.3964
▁knee	-11.3964
▁conveniently	-11.3964
▁tender	-11.3965
DO	-11.3965
▁nail	-11.3965
▁engineer	-11.3965
▁Battle	-11.3965
▁explor	-11.3968
▁hysterically	-11.397
▁Rider	-11.3971
▁Sex	-11.3971
▁*****	-11.3971
▁weight	-11.3975
▁Fan	-11.3978
▁flopp	-11.3979
▁recommendation	-11.398
▁trop	-11.3982
▁Tora	-11.3986
▁lamest	-11.3987
▁smuggl	-11.3987
sult	-11.3988
▁/>3.	-11.399
▁bowl	-11.3992
▁understandable	-11.3993
▁Gay	-11.3994
▁national	-11.3994
idel	-11.4004
▁alas	-11.4004
▁trace	-11.4008
visible	-11.4009
▁bio	-11.4012
▁shameful	-11.4014
▁Elephant	-11.4014
Among	-11.4015
▁stranger	-11.4016
▁heroic	-11.4016
▁technically	-11.4017
▁Set	-11.4018
▁fir	-11.4018
▁tricked	-11.4024
▁errors	-11.4024
▁occasions	-11.4024
▁baddies	-11.4025
▁parties	-11.4028
▁someday	-11.403
▁arrested	-11.403
▁invisible	-11.4031
▁succeeded	-11.4032
cott	-11.4035
▁ku	-11.4036
▁barn	-11.4042
▁artsy	-11.4044
▁Uni	-11.4051
▁demanding	-11.4052
▁contained	-11.4052
▁Ten	-11.4055
▁pink	-11.4059
▁appreciated	-11.4059
▁Surely	-11.406
▁upside	-11.4061
▁marketing	-11.4061
▁PR	-11.4062
▁morons	-11.4067
▁modeling	-11.4076
▁ON	-11.4083
▁briefly	-11.4089
▁convincingly	-11.4089
▁coll	-11.4097
comprehensible	-11.4097
▁blurr	-11.4103
▁owe	-11.4104
▁hugg	-11.4109
▁remained	-11.411
▁accus	-11.4113
really	-11.4114
lph	-11.4116
▁prey	-11.412
▁lac	-11.4126
▁plotting	-11.413
▁GI	-11.4132
▁importantly	-11.4157
▁spinn	-11.4163
albe	-11.4164
▁paced	-11.4167
▁lesser	-11.4169
▁burning	-11.4177
▁SA	-11.4179
rches	-11.4185
▁similarly	-11.4186
▁shopp	-11.4189
▁meat	-11.419
▁suggested	-11.4202
▁info	-11.423
▁alternat	-11.4235
▁Lau	-11.4253
Freak	-11.4254
eighties	-11.4267
omic	-11.4293
▁filler	-11.4304
derate	-11.4311
▁Pan	-11.4312
nette	-11.4364
▁camper	-11.4385
▁WAS	-11.4388
▁despise	-11.4395
▁Por	-11.4395
ncer	-11.4422
voca	-11.4434
▁Air	-11.4456
addy	-11.446
▁terrorize	-11.447
Team	-11.4475
▁Lep	-11.4502
▁Lauren	-11.4514
▁defin	-11.4558
▁Col	-11.4586
▁legal	-11.4589
NO	-11.4595
ummy	-11.4598
▁pushe	-11.4606
fun	-11.4622
12	-11.4623
ipping	-11.4652
▁kn	-11.4656
far	-11.4658
erial	-11.4668
Cool	-11.4674
ital	-11.4678
standing	-11.4692
▁Laur	-11.4698
aka	-11.4707
▁(!)	-11.471
city	-11.4718
Go	-11.472
full	-11.477
hone	-11.4843
▁achiev	-11.4844
EL	-11.4849
▁slum	-11.4852
▁mal	-11.488
ombs	-11.4881
headed	-11.4894
▁define	-11.4895
▁mach	-11.4921
evo	-11.4929
▁Make	-11.4931
collector	-11.4939
▁Jon	-11.4941
NY	-11.4946
▁tap	-11.4958
▁Miche	-11.4974
into	-11.4992
etc	-11.5001
▁shake	-11.5032
▁bru	-11.504
▁format	-11.5049
▁stra	-11.5051
▁STO	-11.5057
dressed	-11.5057
wee	-11.5068
▁stretche	-11.5107
cult	-11.5111
tory	-11.5112
une	-11.5113
▁MU	-11.5127
GM	-11.5143
▁Tan	-11.5147
▁exc	-11.5154
▁Nu	-11.5163
▁Fu	-11.5176
▁villa	-11.519
▁fist	-11.5198
▁misse	-11.5202
ku	-11.5203
▁realiz	-11.5258
▁simpl	-11.527
aud	-11.5292
zer	-11.5302
▁motive	-11.5316
hearted	-11.5316
▁month	-11.5322
▁subplot	-11.5323
▁Kar	-11.533
▁Roa	-11.5338
dropping	-11.5351
Eas	-11.5358
rash	-11.5367
▁(198	-11.537
▁capital	-11.5373
▁flu	-11.5393
▁emerge	-11.5404
▁thoughtful	-11.5409
▁Mig	-11.5416
▁Bas	-11.5421
herent	-11.5447
mind	-11.5455
▁Barb	-11.5458
▁kidnap	-11.5469
▁(196	-11.5482
write	-11.5487
crap	-11.5492
Karmen	-11.5498
national	-11.55
Curse	-11.55
present	-11.55
Bloodline	-11.5502
Believ	-11.5502
wife	-11.5502
Acting	-11.5502
High	-11.5503
House	-11.5503
Yeah	-11.5503
Bruce	-11.5503
Sadly	-11.5503
People	-11.5503
front	-11.5503
fiction	-11.5504
Randy	-11.5504
unfortunately	-11.5504
political	-11.5504
David	-11.5504
please	-11.5504
While	-11.5504
Movie	-11.5504
zombie	-11.5505
everything	-11.5505
Kath	-11.5505
maybe	-11.5505
camera	-11.5505
stupid	-11.5505
true	-11.5505
why	-11.5505
shoot	-11.5505
poor	-11.5505
▁chopp	-11.5506
typical	-11.5507
credit	-11.5507
▁bull	-11.5509
Bull	-11.5511
cool	-11.5512
▁fog	-11.5513
wide	-11.5513
capabl	-11.5516
▁parad	-11.5519
wow	-11.5523
▁satisfy	-11.5524
Get	-11.5524
plane	-11.5526
End	-11.5526
bear	-11.5533
both	-11.5537
hair	-11.5537
since	-11.5538
▁flip	-11.5539
Other	-11.554
▁tur	-11.5541
think	-11.5543
pot	-11.555
evil	-11.5551
about	-11.5551
bag	-11.5552
word	-11.5552
▁philosoph	-11.5554
ushed	-11.5554
▁engage	-11.5554
▁combat	-11.5557
ROM	-11.556
▁spoke	-11.5564
loved	-11.5565
▁gradua	-11.5565
▁padd	-11.5566
killer	-11.5568
▁cock	-11.557
Sure	-11.5571
logue	-11.5571
▁studi	-11.5572
▁Hunt	-11.5575
▁custom	-11.558
▁obligat	-11.558
▁differ	-11.5581
lasher	-11.5581
▁charisma	-11.5582
▁proceed	-11.5582
▁excess	-11.5582
resumably	-11.5582
eval	-11.5582
▁psycholog	-11.5582
clusion	-11.5582
▁clima	-11.5583
▁partial	-11.5583
▁holier	-11.5583
▁masquerad	-11.5583
▁popcorn	-11.5583
▁respond	-11.5583
Hamilton	-11.5583
Studios	-11.5583
accuracy	-11.5583
imaginary	-11.5583
indulgence	-11.5583
paranormal	-11.5583
temporarily	-11.5583
volution	-11.5583
▁(199	-11.5583
▁1972	-11.5583
▁9/11	-11.5583
▁Arnie	-11.5583
▁Arquette	-11.5583
▁Avenger	-11.5583
▁Boreanaz	-11.5583
▁Boxleitner	-11.5583
▁Bulgaria	-11.5583
▁Chauvelin	-11.5583
▁Church	-11.5583
▁Delicatessen	-11.5583
▁Doctor	-11.5583
▁Gossett	-11.5583
▁Gregg	-11.5583
▁Gregory	-11.5583
▁Griffith	-11.5583
▁HORRIBLE	-11.5583
▁Haymes	-11.5583
▁Inferno	-11.5583
▁Isobel	-11.5583
▁Jaclyn	-11.5583
▁KISS	-11.5583
▁Katona	-11.5583
▁Lecter	-11.5583
▁MAGOO	-11.5583
▁Marshall	-11.5583
▁Mexico	-11.5583
▁Pearce	-11.5583
▁Project	-11.5583
▁Renoir	-11.5583
▁Samurai	-11.5583
▁Snafu	-11.5583
▁Stallone	-11.5583
▁Throughout	-11.5583
▁Twain	-11.5583
▁Viggo	-11.5583
▁Voight	-11.5583
▁WOW	-11.5583
▁Wallace	-11.5583
▁Watson	-11.5583
▁Wilkinson	-11.5583
▁access	-11.5583
▁adolescen	-11.5583
▁album	-11.5583
▁arrival	-11.5583
▁banjo	-11.5583
▁bastard	-11.5583
▁blunt	-11.5583
▁cemetery	-11.5583
▁companion	-11.5583
▁condemn	-11.5583
▁controversy	-11.5583
▁convoluted	-11.5583
▁corporation	-11.5583
▁crazi	-11.5583
▁deceive	-11.5583
▁devour	-11.5583
▁dispatch	-11.5583
▁dysfunction	-11.5583
▁eccentric	-11.5583
▁endearing	-11.5583
▁epitom	-11.5583
▁equipment	-11.5583
▁eternity	-11.5583
▁exhibit	-11.5583
▁extensive	-11.5583
▁fuzzy	-11.5583
▁giggling	-11.5583
▁grasp	-11.5583
▁grotesque	-11.5583
▁haphazard	-11.5583
▁happily	-11.5583
▁hustler	-11.5583
▁inaccuracies	-11.5583
▁inclined	-11.5583
▁incompetent	-11.5583
▁industrial	-11.5583
▁inevitabl	-11.5583
▁insipid	-11.5583
▁jarring	-11.5583
▁landlord	-11.5583
▁manipulat	-11.5583
▁meltdown	-11.5583
▁memories	-11.5583
▁monotonous	-11.5583
▁museum	-11.5583
▁nominated	-11.5583
▁patrioti	-11.5583
▁paycheck	-11.5583
▁pedestrian	-11.5583
▁phony	-11.5583
▁preposterous	-11.5583
▁puke	-11.5583
▁repulsive	-11.5583
▁resolution	-11.5583
▁restaurant	-11.5583
▁rudimentary	-11.5583
▁seduce	-11.5583
▁smiling	-11.5583
▁solution	-11.5583
▁species	-11.5583
▁stimulate	-11.5583
▁syrup	-11.5583
▁territory	-11.5583
▁unappealing	-11.5583
▁underneath	-11.5583
▁unhappy	-11.5583
▁unintelligible	-11.5583
▁vapid	-11.5583
▁wipe	-11.5583
▁wretch	-11.5583
Beautiful	-11.5583
Dracula	-11.5583
rchitect	-11.5583
▁Clearly	-11.5583
▁Darkhunters	-11.5583
▁Darshan	-11.5583
▁Harper	-11.5583
▁NASA	-11.5583
▁Paré	-11.5583
▁admittedly	-11.5583
▁bikini	-11.5583
▁dentist	-11.5583
▁devastat	-11.5583
▁efficient	-11.5583
▁gardener	-11.5583
▁illustr	-11.5583
▁insurance	-11.5583
▁magnificent	-11.5583
▁minimum	-11.5583
▁mutant	-11.5583
▁premiere	-11.5583
▁recruit	-11.5583
▁refreshing	-11.5583
▁river	-11.5583
▁tremendous	-11.5583
▁undercover	-11.5583
▁warrant	-11.5583
-16	-11.5583
▁Flash	-11.5583
▁Jacob	-11.5583
▁NYC	-11.5583
▁Rubin	-11.5583
▁coffin	-11.5583
▁commentator	-11.5583
▁dreck	-11.5583
▁libert	-11.5583
▁polite	-11.5583
▁pulp	-11.5583
▁spider	-11.5583
ARK	-11.5583
celebrate	-11.5583
▁Hugh	-11.5583
▁Norton	-11.5583
▁implied	-11.5583
▁supply	-11.5583
▁uniform	-11.5583
OTHER	-11.5583
▁/>2/10	-11.5583
▁Glori	-11.5583
▁Simon	-11.5583
▁comparing	-11.5583
▁Action	-11.5583
▁brown	-11.5583
▁overbearing	-11.5583
▁Train	-11.5583
▁flashlights	-11.5583
▁groan	-11.5583
▁rappers	-11.5583
▁Moretz	-11.5583
▁deaf	-11.5583
Virgin	-11.5583
▁egg	-11.5583
▁mercenar	-11.5583
▁compensat	-11.5583
▁Spelling	-11.5583
Usually	-11.5583
▁Reshamiya	-11.5583
▁Sense	-11.5583
▁eyebrow	-11.5583
▁faint	-11.5583
▁oblivion	-11.5583
▁Jews	-11.5583
▁Salva	-11.5583
▁Weill	-11.5583
▁comedian	-11.5583
▁parrot	-11.5583
▁undeserv	-11.5583
▁Betty	-11.5583
▁mugg	-11.5583
▁Fear	-11.5583
▁Glen	-11.5583
▁Wait	-11.5583
▁Baby	-11.5583
▁Barnes	-11.5583
▁Miguel	-11.5583
▁cryptozoologist	-11.5583
▁undermine	-11.5583
TION	-11.5583
▁EVERYTHING	-11.5583
▁coincidence	-11.5583
▁Avalon	-11.5583
▁octopus	-11.5583
▁dinos	-11.5583
▁interrupt	-11.5583
▁ditch	-11.5583
▁enhanc	-11.5583
▁advertise	-11.5583
▁predator	-11.5584
▁definition	-11.5584
shaft	-11.5584
▁Conf	-11.5584
▁tease	-11.5584
▁graveyard	-11.5584
ispanic	-11.5584
▁appreciation	-11.5584
lackwater	-11.5584
▁apologize	-11.5584
▁Series	-11.5584
▁idol	-11.5584
▁rapture	-11.5584
▁bloated	-11.5584
▁feather	-11.5584
▁holiday	-11.5584
▁cenobites	-11.5584
▁Johnston	-11.5584
▁infantile	-11.5584
Claud	-11.5584
▁masochistic	-11.5584
▁tiresome	-11.5584
▁Farina	-11.5584
▁demonstrate	-11.5584
▁applie	-11.5584
▁Krist	-11.5584
▁trend	-11.5584
▁savage	-11.5584
▁Funny	-11.5584
▁infant	-11.5584
▁2005	-11.5584
▁Fabian	-11.5584
▁legitima	-11.5584
▁strand	-11.5584
▁substandard	-11.5584
▁Mills	-11.5584
▁sublim	-11.5584
mpire	-11.5584
▁vocal	-11.5584
▁Blake	-11.5584
▁fulfill	-11.5585
▁HATE	-11.5585
▁romp	-11.5585
▁annoyance	-11.5585
▁Molly	-11.5585
plicit	-11.5585
▁dump	-11.5585
▁innocence	-11.5585
▁plausible	-11.5585
▁char	-11.5585
frog	-11.5585
▁addiction	-11.5585
▁Temp	-11.5586
▁angst	-11.5586
▁Hood	-11.5586
▁bou	-11.5586
▁fanatic	-11.5586
▁insightful	-11.5586
▁spring	-11.5586
▁dung	-11.5586
▁Showtime	-11.5586
▁crook	-11.5586
▁notorious	-11.5586
▁jury	-11.5586
▁occurred	-11.5586
▁coast	-11.5586
▁weekend	-11.5587
▁Renar	-11.5587
▁Golan	-11.5587
▁$4	-11.5587
▁similarities	-11.5587
▁snuff	-11.5587
▁Alison	-11.5587
▁Rome	-11.5587
▁Spoilers	-11.5587
▁comfortable	-11.5587
▁magician	-11.5587
▁ninety	-11.5587
▁rewrite	-11.5587
▁vary	-11.5587
▁subtly	-11.5587
▁click	-11.5587
unior	-11.5587
▁possesses	-11.5587
▁roam	-11.5588
▁salad	-11.5588
▁gaps	-11.5588
▁coach	-11.5588
▁collar	-11.5588
▁candle	-11.5588
▁tame	-11.5588
▁confrontation	-11.5588
▁safety	-11.5588
▁objective	-11.5588
▁disconnected	-11.5588
▁subtitles	-11.5589
▁fluff	-11.5589
forbidden	-11.5589
▁homosexuality	-11.5589
▁boob	-11.5589
▁distributor	-11.559
urban	-11.559
ribb	-11.559
▁Miles	-11.559
▁insert	-11.559
▁fee	-11.559
▁Mind	-11.559
▁ELE	-11.559
immer	-11.559
▁bread	-11.559
faced	-11.559
▁maid	-11.559
▁Sara	-11.559
ternal	-11.5591
▁friendship	-11.5591
▁flames	-11.5591
▁max	-11.5591
▁Homer	-11.5591
▁punk	-11.5592
iously	-11.5592
▁booth	-11.5592
▁Bollywood	-11.5592
gay	-11.5592
▁FLY	-11.5592
▁neat	-11.5592
▁hail	-11.5593
▁Code	-11.5593
▁AWAY	-11.5593
▁oil	-11.5593
LIC	-11.5594
▁MTV	-11.5594
▁Starling	-11.5594
▁Worse	-11.5594
▁State	-11.5595
▁Jake	-11.5595
▁competent	-11.5595
▁bible	-11.5595
▁obes	-11.5595
rwin	-11.5595
YING	-11.5596
▁unlikeable	-11.5596
▁embr	-11.5596
▁Luck	-11.5596
ronic	-11.5596
▁aimless	-11.5596
▁Dix	-11.5597
▁secondary	-11.5597
▁Zone	-11.5597
▁/>3)	-11.5597
▁Camp	-11.5597
▁emo	-11.5597
▁cub	-11.5597
▁witnesses	-11.5597
▁restroom	-11.5598
▁distance	-11.5598
▁Might	-11.5598
▁shortcoming	-11.5598
▁Peep	-11.5599
▁unreal	-11.5599
▁Alex	-11.5599
▁dating	-11.56
ghett	-11.56
ounce	-11.56
▁Sort	-11.5601
▁demeaning	-11.5601
▁uncut	-11.5601
▁linger	-11.5601
tories	-11.5602
▁chore	-11.5602
▁urina	-11.5602
****	-11.5602
literature	-11.5603
Globus	-11.5604
▁Adama	-11.5604
▁Lives	-11.5605
▁ranch	-11.5606
▁cargo	-11.5606
▁wedding	-11.5606
▁WHAT	-11.5607
▁Hollow	-11.5607
▁Major	-11.5607
▁PLEASE	-11.5607
▁Personally	-11.5607
▁Rebecca	-11.5607
▁intensity	-11.5607
▁Needless	-11.5607
▁Class	-11.5607
▁bloodline	-11.5607
▁resolved	-11.5608
▁Angeles	-11.5608
corp	-11.5608
spawn	-11.5609
▁Jesse	-11.5609
▁Scream	-11.561
Morris	-11.561
▁Christianity	-11.5611
▁square	-11.5611
▁weather	-11.5612
▁torn	-11.5612
▁Book	-11.5612
▁philosophy	-11.5613
▁overwhelming	-11.5614
▁Dill	-11.5614
▁caper	-11.5615
▁curve	-11.5617
▁OH	-11.5618
dense	-11.5618
▁GO	-11.5618
▁Neal	-11.5619
▁claw	-11.562
gore	-11.562
▁Beverl	-11.562
▁touches	-11.562
▁armor	-11.5621
▁Dear	-11.5621
▁dodg	-11.5621
▁chem	-11.5621
▁crashes	-11.5622
▁Cross	-11.5622
▁Ryan	-11.5622
▁CSI	-11.5623
▁talentless	-11.5623
DY	-11.5624
▁Tad	-11.5625
1989	-11.5626
Gues	-11.5626
▁overrated	-11.5626
▁presentation	-11.5627
▁delightful	-11.5627
▁Put	-11.5627
XX	-11.5628
▁HR	-11.5629
ERA	-11.563
▁Try	-11.5632
▁apocalyp	-11.5633
▁confiden	-11.5633
▁Anna	-11.5634
▁Carla	-11.5634
▁wore	-11.5637
▁stark	-11.5637
▁Him	-11.564
▁split	-11.564
▁Dien	-11.5641
▁received	-11.5641
▁Didn	-11.5644
▁beware	-11.5645
▁Pick	-11.5646
▁Station	-11.5649
▁Exe	-11.565
▁needless	-11.565
▁finishes	-11.5651
▁Superhero	-11.5653
▁Lisa	-11.5654
▁butchered	-11.5655
▁Tere	-11.5655
Lor	-11.5655
▁planned	-11.5656
▁clothing	-11.5656
fast	-11.5658
▁Sto	-11.566
▁offens	-11.5662
▁sen	-11.5663
▁dud	-11.5664
▁Gore	-11.5666
▁chilling	-11.5667
▁Karmen	-11.567
Crime	-11.5673
▁readers	-11.568
cam	-11.5683
▁Lone	-11.5683
▁stalking	-11.5687
▁flashy	-11.5688
▁Terribl	-11.569
enzie	-11.5695
yday	-11.5706
spook	-11.5707
▁identif	-11.5709
▁scarie	-11.5709
▁Head	-11.571
▁awfulness	-11.5714
AG	-11.5714
izer	-11.5718
▁dragg	-11.572
▁mouse	-11.5725
▁survived	-11.5729
▁criticize	-11.5734
▁hunting	-11.5734
▁Hero	-11.5736
illusion	-11.5737
thin	-11.5737
▁sooner	-11.5737
1983	-11.5739
▁exposed	-11.5741
▁widely	-11.5742
▁Hum	-11.5744
67	-11.5746
▁mail	-11.575
fic	-11.5753
▁tortured	-11.5754
▁discovery	-11.5758
▁limb	-11.5763
cracking	-11.5763
▁surg	-11.5766
▁Soon	-11.5769
rude	-11.5776
▁loaded	-11.5778
phone	-11.5786
▁slu	-11.5793
unning	-11.5797
▁smaller	-11.5809
Trash	-11.581
Dude	-11.5813
▁indicat	-11.5816
▁deer	-11.5823
▁fac	-11.5847
EX	-11.5848
▁bitch	-11.586
▁Oma	-11.587
!!!!!!!!	-11.5873
ux	-11.5875
osis	-11.5898
▁participant	-11.5917
▁Mach	-11.5922
TRA	-11.593
OUS	-11.5941
▁Pen	-11.5942
ncil	-11.5943
▁struggl	-11.5943
RD	-11.5972
▁code	-11.5983
hell	-11.6021
▁generat	-11.6023
pass	-11.6028
ffic	-11.6053
affe	-11.6081
▁McC	-11.6095
vari	-11.6097
umm	-11.6099
▁teache	-11.6117
Who	-11.6125
Ver	-11.6133
000	-11.6161
▁slapp	-11.6165
▁tense	-11.6166
▁FOR	-11.6185
ET	-11.622
▁boo	-11.6243
esque	-11.628
Lost	-11.6323
▁Ban	-11.6347
▁bul	-11.6384
▁article	-11.6388
▁adore	-11.6398
zill	-11.6412
▁stripp	-11.6441
realistic	-11.6449
▁ple	-11.6514
▁Cle	-11.6518
▁ignor	-11.6539
lust	-11.6559
▁woo	-11.6613
THE	-11.6618
eathbed	-11.662
choo	-11.6622
▁Pla	-11.6636
Crap	-11.6641
▁tan	-11.6662
ploy	-11.667
ggling	-11.6671
Wi	-11.6687
▁Yu	-11.6693
▁alleged	-11.6699
astly	-11.6701
.........	-11.6701
vu	-11.6732
▁(200	-11.677
▁Leo	-11.6847
▁dislik	-11.6876
▁Maria	-11.689
moving	-11.6906
▁hug	-11.697
llible	-11.6974
▁Joann	-11.6975
▁resist	-11.6984
believers	-11.6987
▁accuse	-11.6989
▁lone	-11.6991
augh	-11.7032
▁instruct	-11.7052
AVE	-11.7059
robably	-11.7062
▁devi	-11.7078
▁Tu	-11.7128
grav	-11.7134
hill	-11.7137
US	-11.7139
▁eng	-11.715
▁rub	-11.7161
ama	-11.7183
▁terroriz	-11.7212
▁tag	-11.7222
Granted	-11.7226
ritz	-11.73
aker	-11.7302
Boring	-11.7306
▁segment	-11.7314
▁breast	-11.7317
▁dinosaur	-11.7318
▁folk	-11.7327
▁Roger	-11.7327
ackground	-11.7353
▁Andrew	-11.7365
▁loser	-11.7373
▁Lame	-11.7378
▁depend	-11.74
▁Lia	-11.7404
▁East	-11.7421
▁survival	-11.7427
▁captur	-11.744
wash	-11.7442
ject	-11.7462
mill	-11.747
oriented	-11.7478
▁(197	-11.7485
layed	-11.7489
telling	-11.7495
related	-11.7497
Superhero	-11.7498
Lisa	-11.7498
Finally	-11.7501
Ghost	-11.7501
developed	-11.7501
Soultaker	-11.7502
Solomon	-11.7502
drama	-11.7502
OUT	-11.7503
standard	-11.7503
model	-11.7503
Vampire	-11.7503
club	-11.7503
effective	-11.7503
point	-11.7503
frame	-11.7503
Dark	-11.7503
attractive	-11.7503
Big	-11.7503
believe	-11.7503
seeking	-11.7504
Because	-11.7504
Vacation	-11.7504
Two	-11.7504
Basically	-11.7504
surprise	-11.7504
Richard	-11.7504
creature	-11.7504
apparently	-11.7504
average	-11.7505
complete	-11.7505
third	-11.7505
black	-11.7505
writing	-11.7505
women	-11.7505
actually	-11.7505
little	-11.7505
joke	-11.7506
Myster	-11.7507
easy	-11.7507
spoiler	-11.7507
▁plac	-11.7508
monster	-11.7508
Really	-11.7508
Prett	-11.7509
particularly	-11.7509
Jack	-11.7509
speak	-11.751
close	-11.7511
sorry	-11.7512
ograph	-11.7512
music	-11.7513
through	-11.7514
again	-11.7514
could	-11.7514
Bob	-11.7515
Plan	-11.752
Sleep	-11.7523
someone	-11.7523
▁disgust	-11.7526
▁investigat	-11.7529
▁India	-11.7534
truck	-11.7537
▁taxi	-11.754
▁intend	-11.7542
matter	-11.7542
▁frequent	-11.7547
illion	-11.755
Was	-11.7551
▁promote	-11.7553
▁invite	-11.7553
▁resolve	-11.7553
▁attend	-11.7555
▁valu	-11.7557
almost	-11.7558
perhaps	-11.756
Golde	-11.756
rection	-11.756
▁Home	-11.7561
▁Wick	-11.7563
▁bash	-11.7569
▁piti	-11.7569
▁enthusiast	-11.7571
▁Turn	-11.7572
WAY	-11.7572
▁distribut	-11.7572
▁swim	-11.7573
▁Ever	-11.7574
timate	-11.7574
▁sentiment	-11.7574
▁dimension	-11.7575
▁convention	-11.7575
▁bubbl	-11.7577
▁STAR	-11.7577
▁select	-11.7578
▁skelet	-11.7579
▁careful	-11.7579
semblance	-11.7579
netheless	-11.7581
uspense	-11.7581
explored	-11.7581
▁Fantas	-11.7582
earch	-11.7582
▁venge	-11.7582
▁mount	-11.7582
advert	-11.7583
▁smug	-11.7583
▁addict	-11.7583
oblivio	-11.7583
▁plod	-11.7583
~	-11.7583
cycle	-11.7583
Vargas	-11.7583
▁1988	-11.7583
▁Garcia	-11.7583
▁Mortensen	-11.7583
▁Oliver	-11.7583
▁colonel	-11.7583
▁culminat	-11.7583
▁fiancé	-11.7583
▁perpetuat	-11.7583
▁volume	-11.7583
@	-11.7583
Belphégor	-11.7583
Cannibal	-11.7583
Citizen	-11.7583
Critters	-11.7583
Holbrook	-11.7583
Kamerling	-11.7583
Separate	-11.7583
approximately	-11.7583
claustrophobi	-11.7583
communist	-11.7583
hydra	-11.7583
possibilities	-11.7583
proportion	-11.7583
rthodox	-11.7583
sarcasm	-11.7583
í	-11.7583
ó	-11.7583
▁'70	-11.7583
▁1984	-11.7583
▁1997	-11.7583
▁Bravo	-11.7583
▁Carradine	-11.7583
▁Century	-11.7583
▁Clooney	-11.7583
▁Convention	-11.7583
▁Coogan	-11.7583
▁Crystal	-11.7583
▁DOES	-11.7583
▁Deodato	-11.7583
▁Detroit	-11.7583
▁Dohler	-11.7583
▁Dunaway	-11.7583
▁Effects	-11.7583
▁Experiment	-11.7583
▁FILM	-11.7583
▁Fairbanks	-11.7583
▁Faye	-11.7583
▁Florida	-11.7583
▁GREAT	-11.7583
▁Giphart	-11.7583
▁Grenier	-11.7583
▁HELL	-11.7583
▁Henstridge	-11.7583
▁Hmmm	-11.7583
▁Javier	-11.7583
▁Jenkins	-11.7583
▁Kansas	-11.7583
▁Kaufman	-11.7583
▁Kazakhstan	-11.7583
▁Krantz	-11.7583
▁Leatherface	-11.7583
▁Louvre	-11.7583
▁Malibu	-11.7583
▁Marguerite	-11.7583
▁Mitchum	-11.7583
▁Montalban	-11.7583
▁Murphy	-11.7583
▁NBC	-11.7583
▁Neither	-11.7583
▁Nelson	-11.7583
▁Netflix	-11.7583
▁Nicholson	-11.7583
▁OVER	-11.7583
▁Predator	-11.7583
▁Renauld	-11.7583
▁STUPID	-11.7583
▁Secor	-11.7583
▁Shakalaka	-11.7583
▁Sidney	-11.7583
▁Steenburgen	-11.7583
▁Trouble	-11.7583
▁UNDER	-11.7583
▁Wahlberg	-11.7583
▁Yawn	-11.7583
▁admirable	-11.7583
▁aficionado	-11.7583
▁astronaut	-11.7583
▁attribute	-11.7583
▁automatically	-11.7583
▁backdrop	-11.7583
▁camcorder	-11.7583
▁cannibal	-11.7583
▁celebrity	-11.7583
▁cigar	-11.7583
▁cocaine	-11.7583
▁compassion	-11.7583
▁compliment	-11.7583
▁conduct	-11.7583
▁consistency	-11.7583
▁contradict	-11.7583
▁debacle	-11.7583
▁diploma	-11.7583
▁disregard	-11.7583
▁educational	-11.7583
▁enraged	-11.7583
▁exhaust	-11.7583
▁faux	-11.7583
▁furniture	-11.7583
▁gallery	-11.7583
▁grenade	-11.7583
▁hulking	-11.7583
▁imaginable	-11.7583
▁imaginative	-11.7583
▁implement	-11.7583
▁innovative	-11.7583
▁insomnia	-11.7583
▁invoke	-11.7583
▁irritation	-11.7583
▁karaoke	-11.7583
▁lampoon	-11.7583
▁license	-11.7583
▁morgue	-11.7583
▁narrow	-11.7583
▁necklace	-11.7583
▁neighbour	-11.7583
▁penchant	-11.7583
▁picnic	-11.7583
▁plumb	-11.7583
▁pseudonym	-11.7583
▁radar	-11.7583
▁reappear	-11.7583
▁recognise	-11.7583
▁register	-11.7583
▁relevance	-11.7583
▁remarkable	-11.7583
▁revolting	-11.7583
▁sabotage	-11.7583
▁senior	-11.7583
▁sibling	-11.7583
▁silhouettes	-11.7583
▁silliness	-11.7583
▁skating	-11.7583
▁sobbing	-11.7583
▁sympathize	-11.7583
▁thieves	-11.7583
▁tunnels	-11.7583
▁unanswered	-11.7583
▁undeniabl	-11.7583
▁unexciting	-11.7583
▁unlikable	-11.7583
▁unsatisfying	-11.7583
▁unsuccessful	-11.7583
▁unwanted	-11.7583
▁valiant	-11.7583
▁videotape	-11.7583
▁werewolves	-11.7583
IMHO	-11.7583
▁Austin	-11.7583
▁Canada	-11.7583
▁Fraser	-11.7583
▁Hauser	-11.7583
▁Stratton	-11.7583
▁Strode	-11.7583
▁Thompson	-11.7583
▁VCR	-11.7583
▁Warrior	-11.7583
▁absence	-11.7583
▁bimbo	-11.7583
▁caliber	-11.7583
▁convert	-11.7583
▁embar	-11.7583
▁evade	-11.7583
▁fodder	-11.7583
▁function	-11.7583
▁grant	-11.7583
▁groundbreaking	-11.7583
▁historian	-11.7583
▁hollow	-11.7583
▁insect	-11.7583
▁karate	-11.7583
▁mafia	-11.7583
▁misguided	-11.7583
▁omitted	-11.7583
▁overweight	-11.7583
▁peasant	-11.7583
▁reckless	-11.7583
▁secure	-11.7583
▁sensible	-11.7583
▁suicidal	-11.7583
▁unfold	-11.7583
revelation	-11.7583
▁(195	-11.7583
▁Jerem	-11.7583
▁Marvin	-11.7583
▁Peace	-11.7583
▁READ	-11.7583
▁baffle	-11.7583
▁chomp	-11.7583
▁demise	-11.7583
▁disease	-11.7583
▁fierce	-11.7583
▁grass	-11.7583
▁pleasing	-11.7583
▁splash	-11.7583
▁Barrie	-11.7583
▁Cinema	-11.7583
▁Enron	-11.7583
▁Knight	-11.7583
▁Llewel	-11.7583
▁Network	-11.7583
▁Tucker	-11.7583
▁Ugh	-11.7583
▁abundan	-11.7583
▁blink	-11.7583
▁lipstick	-11.7583
▁mund	-11.7583
▁muscle	-11.7583
▁poetic	-11.7583
▁stabbed	-11.7583
▁tactics	-11.7583
▁wimp	-11.7583
▁Club	-11.7583
▁apply	-11.7583
▁bleak	-11.7583
▁manifest	-11.7583
▁rumor	-11.7583
Yesterday	-11.7583
rizon	-11.7583
▁LOL	-11.7583
▁Owen	-11.7583
▁Palance	-11.7583
▁Wiley	-11.7583
▁academ	-11.7583
▁headache	-11.7583
▁narc	-11.7583
▁outlandish	-11.7583
▁stomp	-11.7583
▁voting	-11.7583
▁Child	-11.7583
▁erratic	-11.7583
▁interfer	-11.7583
▁yarn	-11.7583
Toole	-11.7583
▁CEO	-11.7583
▁Dutch	-11.7583
▁Vegas	-11.7583
▁carnage	-11.7583
▁galore	-11.7583
▁permanent	-11.7583
▁sample	-11.7583
▁glaring	-11.7583
Lawrence	-11.7583
▁Elvis	-11.7583
▁grunt	-11.7583
▁Caravaggio	-11.7583
▁consequently	-11.7583
▁march	-11.7583
▁mustache	-11.7583
▁mystical	-11.7583
climb	-11.7583
▁nickname	-11.7583
▁Fisher	-11.7583
▁agenda	-11.7583
▁misfit	-11.7583
▁spree	-11.7583
▁crucifix	-11.7583
▁electronic	-11.7583
▁Russo	-11.7583
▁cotton	-11.7583
▁Kyra	-11.7583
▁stoner	-11.7583
▁wobbl	-11.7583
▁Lucil	-11.7583
▁drum	-11.7583
UGH	-11.7583
▁eleven	-11.7583
▁strangle	-11.7583
▁Painful	-11.7583
▁STD	-11.7583
ketch	-11.7583
squint	-11.7583
▁gusto	-11.7583
▁bungl	-11.7583
▁bloodshed	-11.7583
▁repelle	-11.7583
▁Murray	-11.7583
▁outdoor	-11.7583
▁profit	-11.7583
▁trademark	-11.7583
▁spectrum	-11.7583
▁sadden	-11.7583
▁Face	-11.7583
▁lizard	-11.7583
▁perceiv	-11.7583
▁coincidental	-11.7583
Censor	-11.7583
scilla	-11.7583
▁embe	-11.7584
▁Barely	-11.7584
▁Marines	-11.7584
▁liar	-11.7584
▁Shining	-11.7584
▁textbook	-11.7584
▁Court	-11.7584
▁squea	-11.7584
▁outdated	-11.7584
▁shining	-11.7584
▁tech	-11.7584
Hammett	-11.7584
▁Coburn	-11.7584
▁miniseries	-11.7584
▁wield	-11.7584
▁viewpoint	-11.7584
://	-11.7584
▁Helen	-11.7584
▁competition	-11.7584
OOO	-11.7584
▁observ	-11.7584
▁2007	-11.7584
▁campfire	-11.7584
▁2006	-11.7584
▁singular	-11.7584
▁hurry	-11.7584
▁GOOD	-11.7584
▁deserving	-11.7584
▁grey	-11.7584
▁raving	-11.7584
▁Office	-11.7584
▁Thunderdome	-11.7584
▁rampage	-11.7584
▁democratic	-11.7584
Harold	-11.7584
▁suspicious	-11.7584
Mafia	-11.7584
▁satellite	-11.7584
▁spike	-11.7584
▁lycan	-11.7584
Normal	-11.7584
Govern	-11.7584
▁Matrix	-11.7584
▁severely	-11.7585
▁Diane	-11.7585
evaluat	-11.7585
▁mobster	-11.7585
Succubare	-11.7585
▁helmet	-11.7585
▁Hulkster	-11.7585
▁concoction	-11.7585
▁humiliation	-11.7585
Ocean	-11.7585
▁thread	-11.7585
▁pride	-11.7585
▁suburban	-11.7585
▁underwear	-11.7585
▁Anything	-11.7585
▁Barron	-11.7585
▁coins	-11.7585
▁financ	-11.7585
▁tele	-11.7585
OLD	-11.7585
▁moderate	-11.7585
▁misery	-11.7585
▁mutter	-11.7585
▁cheek	-11.7585
▁Judge	-11.7585
▁helm	-11.7585
▁hokey	-11.7585
▁HOW	-11.7585
▁cancer	-11.7586
▁underdeveloped	-11.7586
▁border	-11.7586
▁rampa	-11.7586
▁gunfire	-11.7586
▁detective	-11.7586
▁slob	-11.7586
Title	-11.7586
▁debat	-11.7586
▁insufferable	-11.7586
▁Country	-11.7586
▁personalities	-11.7586
▁Reality	-11.7586
uza	-11.7586
▁1.5	-11.7586
▁Drug	-11.7586
▁preced	-11.7586
▁Piper	-11.7586
▁Irene	-11.7586
▁obligation	-11.7587
▁unprofessional	-11.7587
▁charity	-11.7587
▁establishment	-11.7587
▁passionate	-11.7587
▁Berger	-11.7587
▁Castle	-11.7587
▁grind	-11.7587
njoy	-11.7587
▁diving	-11.7587
▁lamp	-11.7587
▁snack	-11.7588
▁skeleton	-11.7588
▁Phil	-11.7588
▁cursing	-11.7588
▁Carmen	-11.7588
▁Jager	-11.7588
▁melod	-11.7588
▁pretension	-11.7588
▁Laughable	-11.7588
!!!!!!!!!!!!!!!	-11.7588
Victor	-11.7588
▁loop	-11.7588
▁improvement	-11.7589
▁decorat	-11.7589
▁Dali	-11.7589
▁complaints	-11.7589
▁apocalypse	-11.7589
LOW	-11.759
▁sappy	-11.759
▁Justice	-11.759
▁Lead	-11.759
▁priceless	-11.759
▁Dirt	-11.759
▁bride	-11.759
▁cannon	-11.759
Wired	-11.759
▁vein	-11.759
▁nation	-11.759
▁Could	-11.7591
▁Thus	-11.7591
▁Candy	-11.7591
▁poke	-11.7591
▁vanity	-11.7591
▁roar	-11.7591
Married	-11.7591
▁Factor	-11.7591
▁confirm	-11.7592
▁instructor	-11.7592
▁trio	-11.7592
▁zone	-11.7592
▁countryside	-11.7592
▁Marx	-11.7592
olated	-11.7592
estimate	-11.7592
IGHT	-11.7592
▁dwell	-11.7593
▁Borth	-11.7593
▁sweaty	-11.7593
▁Beau	-11.7593
▁rewritten	-11.7594
▁colorful	-11.7594
▁ram	-11.7594
▁unexplained	-11.7594
▁Elizabeth	-11.7594
▁Mattie	-11.7594
▁reverse	-11.7595
▁beforehand	-11.7595
▁diversity	-11.7595
▁puff	-11.7595
▁depart	-11.7595
▁enthusiastic	-11.7595
▁submit	-11.7595
▁antics	-11.7596
▁earnest	-11.7597
▁Davidson	-11.7597
▁patch	-11.7597
worship	-11.7597
▁Kang	-11.7597
▁Long	-11.7597
▁Rather	-11.7597
▁vanishes	-11.7598
▁MOR	-11.7598
▁brush	-11.7599
▁uh	-11.7599
▁chic	-11.7599
▁legit	-11.76
▁Linc	-11.76
▁crazed	-11.76
▁cram	-11.76
▁squad	-11.76
▁symbolic	-11.7601
▁documented	-11.7601
▁Dino	-11.7602
▁300	-11.7602
▁Store	-11.7602
▁nonetheless	-11.7603
▁Touch	-11.7603
LES	-11.7603
Lamas	-11.7603
▁coup	-11.7603
▁Lane	-11.7603
▁proto	-11.7604
▁gh	-11.7604
▁bush	-11.7605
▁Nig	-11.7605
▁leftover	-11.7605
▁youngster	-11.7605
▁loon	-11.7605
▁sway	-11.7606
98	-11.7606
Warning	-11.7607
▁Serb	-11.7607
▁boom	-11.7607
▁THEY	-11.7607
Valeri	-11.7607
▁ambi	-11.7608
Dial	-11.7608
▁USS	-11.7608
earl	-11.7608
▁Kove	-11.7608
▁cleverness	-11.7609
▁Grand	-11.7609
▁showdown	-11.7609
▁affection	-11.7609
▁runtime	-11.761
▁wheel	-11.7611
▁cage	-11.7611
▁Cast	-11.7611
▁deliberate	-11.7611
▁Herman	-11.7611
▁perfection	-11.7611
▁chicken	-11.7612
▁Dialog	-11.7612
▁tick	-11.7612
much	-11.7614
▁promoted	-11.7614
▁invited	-11.7614
▁Ria	-11.7614
▁chor	-11.7615
Rex	-11.7615
▁blo	-11.7615
▁Duff	-11.7615
▁midst	-11.7615
▁Hour	-11.7616
pathi	-11.7618
▁relieve	-11.7618
▁cocky	-11.762
▁sickness	-11.7622
▁vibra	-11.7622
▁defeated	-11.7625
▁Ric	-11.7625
▁Butler	-11.7626
▁lol	-11.7627
▁ammo	-11.7631
▁sleaze	-11.7631
▁Coen	-11.7632
▁jerky	-11.7633
▁faded	-11.7634
▁scripture	-11.7635
▁villager	-11.7636
▁distinctly	-11.7637
cause	-11.7638
carl	-11.7638
▁sup	-11.7639
▁orchestrate	-11.7639
▁strangest	-11.7642
▁variati	-11.7644
▁nun	-11.7644
▁Army	-11.7645
▁crop	-11.7646
▁rapidly	-11.7646
▁placement	-11.7646
Thunder	-11.7647
▁fairness	-11.7648
▁resembl	-11.7656
arten	-11.766
▁justified	-11.7662
▁sucker	-11.7664
Find	-11.7673
nticipation	-11.7673
▁parade	-11.7674
▁passes	-11.7675
▁Real	-11.7675
▁Ball	-11.7676
▁linear	-11.7677
bai	-11.7684
▁TR	-11.7686
hippie	-11.7687
▁spe	-11.7688
escent	-11.7688
▁pout	-11.7691
INAL	-11.7694
▁1934	-11.7698
▁explorer	-11.7706
1969	-11.7708
▁whine	-11.7709
▁bullie	-11.7716
▁Penn	-11.772
▁Saw	-11.7721
mmer	-11.7725
66	-11.7726
▁shi	-11.7729
rray	-11.7729
lurid	-11.773
▁Stra	-11.774
liness	-11.7746
▁Easter	-11.7749
pulse	-11.7757
GET	-11.7769
▁Raz	-11.7769
onald	-11.7769
asco	-11.777
▁metaphor	-11.7776
▁subtitl	-11.7777
▁Hur	-11.7781
▁dime	-11.7792
ibly	-11.7799
▁Jul	-11.7806
Nail	-11.7809
▁drift	-11.7832
▁setup	-11.7836
▁redundan	-11.7836
▁capitaliz	-11.7841
▁creepie	-11.7842
bbie	-11.7853
stantly	-11.7853
tress	-11.7857
NES	-11.7859
▁sab	-11.7864
▁updat	-11.7864
Charleston	-11.7865
▁flipp	-11.7876
▁Pate	-11.7879
▁Marcia	-11.7896
▁Mak	-11.7906
vention	-11.8006
▁wri	-11.8049
▁prais	-11.8051
pical	-11.8054
▁soooo	-11.8056
Can	-11.8073
▁tri	-11.8087
▁remov	-11.8092
▁announc	-11.815
traditional	-11.8161
lex	-11.8205
mination	-11.8207
MEN	-11.8251
Eye	-11.8257
uncan	-11.828
Take	-11.8286
▁pill	-11.8298
▁Romania	-11.8331
cutter	-11.8337
stopp	-11.8349
ddled	-11.8383
gged	-11.8411
▁offend	-11.8422
Arm	-11.856
open	-11.8561
nough	-11.8617
▁doze	-11.8621
31	-11.8624
var	-11.8644
▁bogg	-11.8646
▁Leg	-11.8668
▁dispose	-11.8731
▁matur	-11.8745
▁Script	-11.8769
▁Vic	-11.8797
▁calculat	-11.8806
▁communicat	-11.881
plight	-11.8817
▁contribut	-11.8952
Lau	-11.8968
▁Yi	-11.8995
75	-11.9063
TOO	-11.9085
11	-11.9132
▁congratulat	-11.9132
#	-11.9164
▁exchang	-11.9189
remarkably	-11.9192
ORS	-11.9239
▁thirst	-11.9243
Jai	-11.9289
Com	-11.9301
▁tradition	-11.9388
▁barr	-11.9437
▁stab	-11.9483
ooooo	-11.954
Mart	-11.9578
▁hung	-11.9595
meter	-11.9621
UM	-11.9628
▁virtu	-11.9688
lucky	-11.9697
ARS	-11.9706
▁Gerr	-11.972
▁blur	-11.9747
forms	-11.9756
▁litera	-11.9804
▁moron	-11.9807
▁Texa	-11.9834
flated	-11.9848
self	-11.9855
oiled	-11.9867
▁repu	-11.9901
ALLY	-11.9905
▁anticipat	-11.9969
ranged	-11.9979
45	-11.9981
eems	-11.9982
world	-11.9993
▁assist	-11.9995
▁significan	-11.9997
▁Swi	-11.9997
apocalyp	-11.9998
quarters	-11.9999
expert	-11.9999
▁importan	-11.9999
▁mus	-12
dubbed	-12
proof	-12
professional	-12
Arthur	-12.0001
Friday	-12.0001
Party	-12.0001
Over	-12.0001
Battle	-12.0001
Three	-12.0002
sport	-12.0002
Galaxina	-12.0002
trust	-12.0003
Wicked	-12.0003
switch	-12.0003
Thank	-12.0003
biker	-12.0003
adventure	-12.0004
familiar	-12.0004
fantasy	-12.0004
Boy	-12.0004
Chupacabra	-12.0004
plus	-12.0004
romantic	-12.0004
Probably	-12.0004
Christmas	-12.0004
victim	-12.0004
shocking	-12.0004
literally	-12.0004
documentary	-12.0004
nasty	-12.0004
Indian	-12.0004
Wood	-12.0004
possible	-12.0004
buddy	-12.0004
James	-12.0004
villain	-12.0004
yeah	-12.0004
modern	-12.0004
thriller	-12.0005
boyfriend	-12.0005
between	-12.0005
wind	-12.0005
woman	-12.0005
level	-12.0005
entertainment	-12.0005
dramatic	-12.0006
talent	-12.0006
mission	-12.0007
Paul	-12.0008
▁schem	-12.0008
comedy	-12.0009
burn	-12.0009
dude	-12.001
guard	-12.001
▁activit	-12.0011
Nash	-12.0012
game	-12.0013
based	-12.0014
▁Terr	-12.0018
week	-12.0018
Never	-12.0018
Mod	-12.002
blow	-12.0024
super	-12.0024
staged	-12.0026
▁compell	-12.0028
mother	-12.0028
Wow	-12.0029
5%	-12.0029
▁defeat	-12.003
workers	-12.0035
▁possess	-12.0036
▁contend	-12.0037
▁profession	-12.004
▁slack	-12.0044
*****	-12.0045
▁battl	-12.0046
▁Natural	-12.0048
oggi	-12.0049
▁bias	-12.0053
▁atrocit	-12.0055
▁grain	-12.0055
▁swor	-12.0055
▁quirk	-12.0055
▁episod	-12.0057
▁Lizz	-12.0057
▁Summer	-12.0057
▁literal	-12.0057
▁absolut	-12.0062
▁exorcis	-12.0068
▁polic	-12.0068
igger	-12.007
▁HORR	-12.007
wall	-12.0071
fisted	-12.0071
▁Direct	-12.0073
haven	-12.0074
▁disast	-12.0075
articularly	-12.0075
ntelligent	-12.0075
UCK	-12.0076
▁speech	-12.0076
▁scienti	-12.0078
▁purpo	-12.0079
▁apprecia	-12.0079
▁dialo	-12.0079
▁Isabel	-12.0079
▁responsib	-12.0079
▁alcohol	-12.008
imilar	-12.0081
ecret	-12.0081
▁SEE	-12.0081
OME	-12.0081
▁marvel	-12.0081
▁democra	-12.0082
xpect	-12.0082
ontrary	-12.0082
riangle	-12.0082
▁monk	-12.0082
▁confusi	-12.0082
ehind	-12.0082
▁intellect	-12.0083
lenty	-12.0083
▁stereo	-12.0083
mortal	-12.0083
▁Resham	-12.0083
---------	-12.0083
destructi	-12.0083
▁speculati	-12.0083
▁unemploy	-12.0083
ZOMBIE	-12.0083
malgam	-12.0083
retribution	-12.0083
▁Singapore	-12.0083
▁accommodat	-12.0083
▁dictator	-12.0083
▁evacuat	-12.0083
▁satisfactor	-12.0083
AVOID	-12.0083
AWFUL	-12.0083
Ausentes	-12.0083
Delusion	-12.0083
Django	-12.0083
EVIL	-12.0083
Escanaba	-12.0083
Escape	-12.0083
Excellent	-12.0083
Ferrigno	-12.0083
Focus	-12.0083
Garbage	-12.0083
Herzog	-12.0083
Supposedly	-12.0083
Surprisingly	-12.0083
Tennessee	-12.0083
Written	-12.0083
acquaint	-12.0083
anctimon	-12.0083
christian	-12.0083
civilization	-12.0083
disadvantage	-12.0083
enactment	-12.0083
fluent	-12.0083
frozen	-12.0083
holocaust	-12.0083
marijuana	-12.0083
surveillance	-12.0083
terminator	-12.0083
▁Alexander	-12.0083
▁Almodovar	-12.0083
▁April	-12.0083
▁Arlington	-12.0083
▁Austen	-12.0083
▁BOMB	-12.0083
▁Balfour	-12.0083
▁Belphegor	-12.0083
▁Bostwick	-12.0083
▁Bounty	-12.0083
▁CRAP	-12.0083
▁Cassandra	-12.0083
▁Chestnut	-12.0083
▁Cliché	-12.0083
▁Colonel	-12.0083
▁Committee	-12.0083
▁Crawford	-12.0083
▁Crichton	-12.0083
▁Enchanted	-12.0083
▁Esposit	-12.0083
▁Extreme	-12.0083
▁Filipino	-12.0083
▁Flood	-12.0083
▁Francisville	-12.0083
▁Funicello	-12.0083
▁Garris	-12.0083
▁Gibson	-12.0083
▁Grease	-12.0083
▁HIGH	-12.0083
▁Harriet	-12.0083
▁Hayden	-12.0083
▁Hemingway	-12.0083
▁Higgin	-12.0083
▁Holocaust	-12.0083
▁Hoskins	-12.0083
▁Hourglass	-12.0083
▁Lounge	-12.0083
▁Lovejoy	-12.0083
▁Pesci	-12.0083
▁Physic	-12.0083
▁Pittsburgh	-12.0083
▁Public	-12.0083
▁Ramsay	-12.0083
▁Rapture	-12.0083
▁Rigoletto	-12.0083
▁Sabato	-12.0083
▁Slayer	-12.0083
▁Sturges	-12.0083
▁Surprise	-12.0083
▁THINK	-12.0083
▁TIME	-12.0083
▁Technically	-12.0083
▁True	-12.0083
▁Truly	-12.0083
▁VIII	-12.0083
▁Voorhees	-12.0083
▁WRONG	-12.0083
▁Wiggly	-12.0083
▁acknowledge	-12.0083
▁admirably	-12.0083
▁advertising	-12.0083
▁airport	-12.0083
▁ammunition	-12.0083
▁anonym	-12.0083
▁arbitrary	-12.0083
▁association	-12.0083
▁bartender	-12.0083
▁beggars	-12.0083
▁centuries	-12.0083
▁chronological	-12.0083
▁clutch	-12.0083
▁cockroach	-12.0083
▁continent	-12.0083
▁decapitation	-12.0083
▁degenerate	-12.0083
▁deteriorates	-12.0083
▁diamond	-12.0083
▁disintegrate	-12.0083
▁dispens	-12.0083
▁dripping	-12.0083
▁economy	-12.0083
▁endeavor	-12.0083
▁enlighten	-12.0083
▁enormous	-12.0083
▁evangelical	-12.0083
▁exaggeration	-12.0083
▁expendable	-12.0083
▁floozy	-12.0083
▁gigolo	-12.0083
▁hellraiser	-12.0083
▁hilarity	-12.0083
▁impregna	-12.0083
▁increase	-12.0083
▁inexplicabl	-12.0083
▁infiltrat	-12.0083
▁intricate	-12.0083
▁irrelevanc	-12.0083
▁luxury	-12.0083
▁manuscript	-12.0083
▁masculin	-12.0083
▁memorized	-12.0083
▁microphone	-12.0083
▁monstrosity	-12.0083
▁montage	-12.0083
▁morbid	-12.0083
▁nominee	-12.0083
▁occult	-12.0083
▁opportunities	-12.0083
▁pervert	-12.0083
▁plagiari	-12.0083
▁plaster	-12.0083
▁plentiful	-12.0083
▁plug	-12.0083
▁portrait	-12.0083
▁primitive	-12.0083
▁pronunciation	-12.0083
▁python	-12.0083
▁radiation	-12.0083
▁rebellion	-12.0083
▁recipe	-12.0083
▁recognizable	-12.0083
▁relentless	-12.0083
▁rhythm	-12.0083
▁scalpel	-12.0083
▁schedule	-12.0083
▁scrubs	-12.0083
▁seductive	-12.0083
▁sleeve	-12.0083
▁spectator	-12.0083
▁stadium	-12.0083
▁superfluous	-12.0083
▁swamp	-12.0083
▁telegraph	-12.0083
▁tranquil	-12.0083
▁transparent	-12.0083
▁treasure	-12.0083
▁triumph	-12.0083
▁trivial	-12.0083
▁twang	-12.0083
▁unbiased	-12.0083
▁unconventional	-12.0083
▁unrequited	-12.0083
▁victory	-12.0083
▁vigilante	-12.0083
▁virgin	-12.0083
▁volunteer	-12.0083
▁voyeur	-12.0083
▁wisdom	-12.0083
▁1957	-12.0083
▁Amadeus	-12.0083
▁Ananka	-12.0083
▁Bryant	-12.0083
▁Clarice	-12.0083
▁Costner	-12.0083
▁Dragonfly	-12.0083
▁Entertainment	-12.0083
▁Farmiga	-12.0083
▁Fraker	-12.0083
▁Gladiator	-12.0083
▁Liotta	-12.0083
▁Miami	-12.0083
▁Politic	-12.0083
▁WITH	-12.0083
▁Whalley	-12.0083
▁Zeena	-12.0083
▁anachronis	-12.0083
▁counsel	-12.0083
▁courage	-12.0083
▁dignity	-12.0083
▁fawn	-12.0083
▁filter	-12.0083
▁imbecil	-12.0083
▁laboured	-12.0083
▁launcher	-12.0083
▁reprise	-12.0083
▁resident	-12.0083
▁sillie	-12.0083
▁squish	-12.0083
▁staff	-12.0083
▁transport	-12.0083
▁unaware	-12.0083
Instinct	-12.0083
▁Highlander	-12.0083
▁Occasional	-12.0083
▁Passion	-12.0083
▁Sadler	-12.0083
▁Weapon	-12.0083
▁clerk	-12.0083
▁collapse	-12.0083
▁elegan	-12.0083
▁evolv	-12.0083
▁frail	-12.0083
▁goblin	-12.0083
▁hillbill	-12.0083
▁intimidati	-12.0083
▁niece	-12.0083
▁phase	-12.0083
▁repair	-12.0083
▁retitled	-12.0083
▁reunite	-12.0083
▁sorcer	-12.0083
▁Domini	-12.0083
▁Kahn	-12.0083
▁concert	-12.0083
▁tweak	-12.0083
Brazil	-12.0083
▁Cooper	-12.0083
▁Ignor	-12.0083
▁Khoo	-12.0083
▁Locke	-12.0083
▁conquer	-12.0083
▁harass	-12.0083
▁relax	-12.0083
▁snooze	-12.0083
▁staple	-12.0083
▁swan	-12.0083
▁tentative	-12.0083
dissolve	-12.0083
▁Alpha	-12.0083
▁brood	-12.0083
▁chaos	-12.0083
▁fetish	-12.0083
▁pattern	-12.0083
▁spray	-12.0083
▁stool	-12.0083
▁surgeon	-12.0083
▁venom	-12.0083
▁zany	-12.0083
▁DNA	-12.0083
▁Dahl	-12.0083
▁Fool	-12.0083
▁Gerald	-12.0083
▁Shue	-12.0083
▁consciousness	-12.0083
▁expand	-12.0083
▁kidnapping	-12.0083
▁static	-12.0083
interpret	-12.0083
▁Brooks	-12.0083
▁conviction	-12.0083
▁nemesis	-12.0083
hantom	-12.0083
▁Hulkamania	-12.0083
▁Hessling	-12.0083
▁Ollie	-12.0083
▁mankind	-12.0083
▁nineties	-12.0083
▁tyran	-12.0083
▁Maltin	-12.0083
-70	-12.0083
▁garage	-12.0083
▁heiress	-12.0083
▁stitch	-12.0083
3.99	-12.0083
Gomeda	-12.0083
IKE	-12.0083
▁carbon	-12.0083
▁reviv	-12.0083
▁stroll	-12.0083
▁suffice	-12.0083
▁Spain	-12.0083
▁Trum	-12.0083
▁sixties	-12.0083
▁cloak	-12.0083
▁gloss	-12.0083
▁marine	-12.0083
▁operative	-12.0083
▁waitress	-12.0083
Tunnel	-12.0083
▁racing	-12.0083
▁qualif	-12.0083
Comanche	-12.0083
▁SOMETHING	-12.0083
▁Annoy	-12.0083
▁limo	-12.0083
▁madden	-12.0083
▁presume	-12.0083
▁Close	-12.0083
▁Balk	-12.0083
oooooooooo	-12.0083
radical	-12.0083
▁lamb	-12.0083
▁boast	-12.0083
▁emer	-12.0083
▁league	-12.0083
▁mutat	-12.0083
▁slander	-12.0083
agasse	-12.0083
▁delve	-12.0083
▁psychosis	-12.0083
▁tackle	-12.0083
Divine	-12.0083
Lucian	-12.0084
strictions	-12.0084
▁ordeal	-12.0084
▁extract	-12.0084
▁Toshi	-12.0084
▁resurrection	-12.0084
▁tendenc	-12.0084
▁Enter	-12.0084
▁forehead	-12.0084
▁lewd	-12.0084
▁unfulfill	-12.0084
▁Randle	-12.0084
▁exclusive	-12.0084
▁motor	-12.0084
▁bloodsuck	-12.0084
environmentalist	-12.0084
▁Sully	-12.0084
aaaa	-12.0084
▁Henri	-12.0084
▁tissue	-12.0084
▁accusations	-12.0084
▁Banks	-12.0084
squawk	-12.0084
▁retire	-12.0084
▁android	-12.0084
▁liqu	-12.0084
feel	-12.0084
▁resign	-12.0084
▁lurk	-12.0084
▁asinine	-12.0084
onkey	-12.0084
Meltdown	-12.0084
▁toxie	-12.0084
▁Guts	-12.0084
▁hammer	-12.0084
▁Emer	-12.0084
▁4.5	-12.0084
▁RUN	-12.0084
▁psychiatrist	-12.0084
wich	-12.0084
▁jogg	-12.0084
▁reveren	-12.0084
utilize	-12.0084
▁fraud	-12.0084
ommodo	-12.0084
▁purg	-12.0084
Gabby	-12.0084
▁disrupt	-12.0084
▁constraints	-12.0084
▁elections	-12.0084
▁fiery	-12.0084
▁representative	-12.0084
▁brainwash	-12.0084
▁Gilda	-12.0084
▁fortune	-12.0084
▁1998	-12.0084
Marlowe	-12.0084
▁Camber	-12.0084
▁distress	-12.0084
▁masturbation	-12.0084
▁Burn	-12.0085
▁pillow	-12.0085
▁verbal	-12.0085
▁Serbian	-12.0085
▁submission	-12.0085
▁dawn	-12.0085
▁depression	-12.0085
▁borderline	-12.0085
▁glorious	-12.0085
ESTER	-12.0085
▁misfire	-12.0085
▁Kenny	-12.0085
▁SEEN	-12.0085
▁McDonald	-12.0085
▁2008	-12.0085
▁contrary	-12.0085
▁marvelous	-12.0085
Generic	-12.0085
▁glory	-12.0085
▁descent	-12.0085
▁Left	-12.0085
▁1920	-12.0085
▁thankfully	-12.0085
cipher	-12.0085
▁hallway	-12.0085
▁deranged	-12.0085
Creature	-12.0085
OWN	-12.0085
▁Nipar	-12.0085
▁Ronell	-12.0085
▁eject	-12.0085
▁Theatre	-12.0085
▁texture	-12.0085
▁bullsh	-12.0085
▁Magic	-12.0086
▁$50	-12.0086
▁fluid	-12.0086
▁seals	-12.0086
▁abyss	-12.0086
alaria	-12.0086
shape	-12.0086
▁classmate	-12.0086
▁Dragon	-12.0086
hrift	-12.0086
▁sunny	-12.0086
▁heartbreak	-12.0086
RAY	-12.0086
▁ROB	-12.0086
Ernest	-12.0086
▁noteworthy	-12.0086
▁envy	-12.0086
▁blade	-12.0086
▁skimp	-12.0086
▁Godfather	-12.0086
▁dingy	-12.0086
Ironically	-12.0086
▁Lauter	-12.0086
▁charter	-12.0086
▁Holly	-12.0087
▁cried	-12.0087
▁mush	-12.0087
▁housewife	-12.0087
▁WWF	-12.0087
River	-12.0087
▁Gilli	-12.0087
▁framework	-12.0087
▁halt	-12.0087
▁nostalgic	-12.0087
▁easier	-12.0087
▁87	-12.0087
▁honey	-12.0087
▁obscen	-12.0087
▁Judy	-12.0087
rupt	-12.0087
▁bucket	-12.0088
▁GOD	-12.0088
genious	-12.0088
▁specifically	-12.0088
▁pirate	-12.0088
General	-12.0088
▁lens	-12.0088
▁Comedy	-12.0088
Dylan	-12.0088
▁rapist	-12.0088
▁grandma	-12.0088
▁bounce	-12.0088
▁hippies	-12.0089
▁trappers	-12.0089
▁litter	-12.0089
▁penetrat	-12.0089
same	-12.0089
▁Oldman	-12.0089
▁authenticity	-12.0089
▁complexity	-12.0089
▁farmer	-12.0089
▁Annette	-12.0089
▁east	-12.0089
▁Wasson	-12.0089
▁unrelated	-12.0089
▁disappearance	-12.0089
▁Carlton	-12.0089
▁operation	-12.0089
▁adventurers	-12.0089
▁serviceable	-12.009
▁Somewhere	-12.009
▁Houseman	-12.009
▁speeches	-12.009
BRA	-12.009
hounds	-12.009
******	-12.009
▁STARS	-12.009
▁midway	-12.009
▁SOME	-12.009
▁defici	-12.0091
▁sentimentality	-12.0091
zzi	-12.0091
▁SUCK	-12.0091
▁Drama	-12.0091
▁starlet	-12.0091
▁confi	-12.0091
▁protection	-12.0091
▁Carrie	-12.0091
▁flawless	-12.0091
▁echo	-12.0092
47	-12.0092
xious	-12.0092
▁playboy	-12.0092
▁Grey	-12.0093
▁attendant	-12.0093
▁Sharon	-12.0093
▁99	-12.0093
▁maul	-12.0093
athan	-12.0093
▁ox	-12.0093
▁Prof	-12.0093
▁GRE	-12.0093
▁Phoe	-12.0094
▁alert	-12.0094
▁Spin	-12.0094
▁lake	-12.0094
▁downfall	-12.0095
▁Trac	-12.0095
▁Berry	-12.0095
▁Ooh	-12.0096
▁Kher	-12.0096
▁Depp	-12.0096
▁unconscious	-12.0096
▁transformation	-12.0097
▁trial	-12.0097
▁exceptionally	-12.0097
▁Force	-12.0098
▁Sue	-12.0098
▁Luis	-12.0098
KED	-12.0098
▁sandwiches	-12.0098
laundry	-12.0098
▁Armin	-12.0099
▁spice	-12.0099
▁esp	-12.01
▁concentrat	-12.01
▁glue	-12.01
▁coke	-12.01
▁wallow	-12.01
▁soulless	-12.0101
▁Color	-12.0101
lique	-12.0102
▁Fellin	-12.0102
▁SEA	-12.0102
▁succession	-12.0103
Creat	-12.0103
▁sung	-12.0104
▁Idle	-12.0104
▁oz	-12.0105
▁heels	-12.0105
▁murderous	-12.0105
▁washing	-12.0105
▁36	-12.0105
▁brutality	-12.0106
ssors	-12.0106
▁absurdity	-12.0106
▁businessman	-12.0106
▁Manson	-12.0106
AGE	-12.0106
▁Pope	-12.0107
avish	-12.0107
nominations	-12.0107
▁Deol	-12.0107
predictability	-12.0108
docu	-12.0108
chewing	-12.0108
▁masses	-12.0108
▁airline	-12.0108
▁scriptwriter	-12.0109
▁pisse	-12.0109
▁sack	-12.0109
▁Dern	-12.011
versus	-12.0111
▁aunt	-12.0112
▁policeman	-12.0112
▁35	-12.0113
▁futil	-12.0113
▁novella	-12.0114
▁reflection	-12.0115
mela	-12.0116
▁slant	-12.0116
▁Producer	-12.0116
ntire	-12.0117
▁Drew	-12.0117
▁Toys	-12.0117
roud	-12.0118
▁brick	-12.0119
▁Edge	-12.0119
▁loin	-12.012
AIR	-12.0123
▁App	-12.0124
Xena	-12.0126
▁contender	-12.0129
▁slacker	-12.0129
▁Pure	-12.013
▁Nope	-12.0131
▁Case	-12.0131
Deranged	-12.0131
OY	-12.0132
Indeed	-12.0136
▁Mack	-12.0136
stock	-12.0136
▁pap	-12.0138
▁CAN	-12.014
lga	-12.0144
▁Earl	-12.0146
loft	-12.0154
▁Bug	-12.0161
▁consumer	-12.0169
▁Pino	-12.0176
▁burl	-12.0196
rotic	-12.0196
ield	-12.0197
▁Tale	-12.0198
▁elaborat	-12.0206
dependent	-12.0213
▁interact	-12.0217
▁disorient	-12.022
furthermore	-12.0224
▁Disc	-12.0228
Basic	-12.0233
▁Finn	-12.0245
▁1927	-12.0263
▁junkie	-12.0263
Bab	-12.0263
▁pour	-12.0264
attle	-12.0268
BUM	-12.0271
ARD	-12.0273
▁distan	-12.0316
propel	-12.0323
Files	-12.0352
Moreover	-12.0353
▁substitut	-12.0358
▁boil	-12.0376
▁Law	-12.0394
avant	-12.0407
▁Enni	-12.0412
▁mumbl	-12.0415
▁Toxi	-12.0418
▁peel	-12.0438
▁spli	-12.0444
iggs	-12.0446
NOT	-12.0453
rnished	-12.0508
ccused	-12.0517
camp	-12.0526
gasp	-12.0527
agne	-12.053
guil	-12.0549
among	-12.0564
Ironside	-12.0565
OOK	-12.0566
obi	-12.0573
nail	-12.0592
sanity	-12.0592
cree	-12.0609
animate	-12.0628
deviant	-12.0661
▁Merr	-12.0669
▁reserve	-12.0736
wear	-12.0743
animator	-12.0752
arious	-12.0755
▁dominat	-12.0774
ruise	-12.0779
▁terroris	-12.0788
struction	-12.0794
Space	-12.0806
▁Fake	-12.0851
▁til	-12.0854
investment	-12.0862
rugged	-12.0877
▁disapoint	-12.0928
flicted	-12.095
▁hipp	-12.0969
▁solv	-12.0976
lept	-12.0986
▁Gee	-12.101
sistance	-12.1052
frey	-12.1053
uture	-12.1077
MST	-12.109
$#	-12.1095
SION	-12.1096
Laur	-12.117
▁glori	-12.1212
cum	-12.1276
▁Unreal	-12.1321
excus	-12.1342
▁Lili	-12.1355
coat	-12.1394
▁improbabl	-12.1484
▁bark	-12.149
outstanding	-12.1499
ppy	-12.1537
▁log	-12.163
▁Jun	-12.1761
dditional	-12.181
Happ	-12.182
▁animat	-12.1853
▁remak	-12.1895
▁provin	-12.1922
climatic	-12.1965
AX	-12.1968
tique	-12.2009
▁condo	-12.2099
$$	-12.2204
▁inflict	-12.237
pression	-12.2392
talkie	-12.2428
duced	-12.263
▁alternati	-12.2643
catching	-12.283
▁reincarnat	-12.2889
▁cuc	-12.2911
avory	-12.2934
▁considerabl	-12.298
pressive	-12.3019
rifter	-12.3028
stitute	-12.3044
atrical	-12.3047
controll	-12.3047
▁Serv	-12.3051
paste	-12.3069
Quit	-12.3093
create	-12.3113
▁retrieve	-12.3124
▁occasion	-12.3134
▁error	-12.3144
▁baddie	-12.3148
▁critter	-12.3149
bsurd	-12.3205
▁stumbl	-12.3207
surge	-12.3215
Q	-12.3216
emale	-12.3243
edric	-12.3249
burger	-12.3277
▁tortur	-12.3293
▁Columb	-12.3304
▁disappoint	-12.331
▁Swo	-12.3311
onfident	-12.3314
direct	-12.3317
▁orchestra	-12.3318
Walk	-12.3322
▁squa	-12.3324
claimed	-12.3325
natural	-12.3332
Cross	-12.3332
CSI	-12.3332
Ryan	-12.3332
Heaven	-12.3333
BUT	-12.3333
strict	-12.3333
Pacific	-12.3334
Typical	-12.3334
believable	-12.3334
Queen	-12.3334
Quick	-12.3334
established	-12.3334
Box	-12.3334
Furthermore	-12.3335
WHY	-12.3335
honor	-12.3335
Scout	-12.3335
Nightbeast	-12.3335
Police	-12.3335
Claire	-12.3335
Family	-12.3335
Special	-12.3335
Bruno	-12.3335
meaning	-12.3336
Blue	-12.3336
pleasure	-12.3336
Doug	-12.3336
soldier	-12.3336
Actually	-12.3336
Charlie	-12.3336
winning	-12.3336
Hulk	-12.3336
parody	-12.3336
wreck	-12.3336
born	-12.3337
Frank	-12.3337
Apparently	-12.3337
Hannibal	-12.3337
Kill	-12.3337
Alien	-12.3337
Seriously	-12.3337
bodies	-12.3337
Halloween	-12.3337
Mark	-12.3337
mysterious	-12.3337
possessed	-12.3337
underground	-12.3337
Hopper	-12.3337
drug	-12.3337
discover	-12.3337
George	-12.3338
Lombard	-12.3338
Himesh	-12.3338
violent	-12.3338
priest	-12.3338
accident	-12.3338
clever	-12.3338
hilarious	-12.3338
intended	-12.3338
important	-12.3338
period	-12.3338
Otherwise	-12.3338
value	-12.3338
Italian	-12.3338
message	-12.3338
footage	-12.3338
Hitchcock	-12.3338
support	-12.3338
Everything	-12.3338
pathetic	-12.3338
release	-12.3338
violence	-12.3338
example	-12.3338
okay	-12.3338
daughter	-12.3338
dialogue	-12.3339
family	-12.3339
terrible	-12.3339
girl	-12.3339
Something	-12.3339
vampire	-12.3339
strong	-12.3339
Alas	-12.334
▁Wonder	-12.334
least	-12.3341
unknown	-12.3341
Matt	-12.3341
▁figur	-12.3342
gnant	-12.3342
Jane	-12.3343
Eric	-12.3346
IVI	-12.335
▁overwhelm	-12.3356
▁HUNT	-12.336
aunting	-12.3363
▁neglect	-12.3365
▁retard	-12.3368
▁Produc	-12.337
drive	-12.3375
▁craze	-12.3386
▁guilt	-12.339
▁Israel	-12.3391
enig	-12.3392
▁Whit	-12.3396
▁impossibl	-12.3399
denominat	-12.341
▁nostalgi	-12.3411
nterview	-12.3412
▁concoct	-12.3414
▁humiliat	-12.3414
▁avail	-12.3414
▁populat	-12.3414
atellite	-12.3414
uspicious	-12.3414
arbershop	-12.3414
Character	-12.3414
ympathy	-12.3414
▁gentle	-12.3414
▁ponder	-12.3415
atholic	-12.3415
▁coincide	-12.3415
plies	-12.3415
▁apologi	-12.3415
raveyard	-12.3415
stitution	-12.3416
▁Euro	-12.3416
▁garb	-12.3416
mutilat	-12.3416
anguage	-12.3416
OOD	-12.3416
serious	-12.3416
▁dynami	-12.3416
▁relations	-12.3416
▁Continu	-12.3416
▁condescen	-12.3416
enburg	-12.3416
▁Democrat	-12.3416
▁gruel	-12.3416
▁mannequin	-12.3416
▁sledgehammer	-12.3416
@#$	-12.3416
Cinematography	-12.3416
Decapitron	-12.3416
Disappointing	-12.3416
Dreyfuss	-12.3416
Engineer	-12.3416
Essentially	-12.3416
Firefly	-12.3416
Hostel	-12.3416
Mararía	-12.3416
Mohanlal	-12.3416
Pakistani	-12.3416
RECORD	-12.3416
Rodriguez	-12.3416
Sullivan	-12.3416
Tragic	-12.3416
Trainspotting	-12.3416
Unidentified	-12.3416
Untouchables	-12.3416
WARNING	-12.3416
WATER	-12.3416
atriarch	-12.3416
comparatively	-12.3416
defects	-12.3416
delusion	-12.3416
disputed	-12.3416
effectual	-12.3416
enaissance	-12.3416
heartwarming	-12.3416
ilosevic	-12.3416
osaurus	-12.3416
ostensibly	-12.3416
pprentice	-12.3416
privacy	-12.3416
rangutans	-12.3416
reservation	-12.3416
rguably	-12.3416
steroids	-12.3416
swoon	-12.3416
transcendent	-12.3416
utomobiles	-12.3416
yndrome	-12.3416
}	-12.3416
▁1913	-12.3416
▁1929	-12.3416
▁1933	-12.3416
▁1941	-12.3416
▁1961	-12.3416
▁1964	-12.3416
▁1974	-12.3416
▁1999	-12.3416
▁2525	-12.3416
▁ALWAYS	-12.3416
▁Admiral	-12.3416
▁Alcatraz	-12.3416
▁Audience	-12.3416
▁Audrey	-12.3416
▁BETTER	-12.3416
▁Belmont	-12.3416
▁Braveheart	-12.3416
▁Britney	-12.3416
▁CHILD	-12.3416
▁COMING	-12.3416
▁CUJO	-12.3416
▁Cajun	-12.3416
▁Cochran	-12.3416
▁Collection	-12.3416
▁Coscarelli	-12.3416
▁Creek	-12.3416
▁Criterion	-12.3416
▁DeathDream	-12.3416
▁Deschanel	-12.3416
▁Disappear	-12.3416
▁EXACTLY	-12.3416
▁Evidence	-12.3416
▁Fitzgerald	-12.3416
▁Flambeau	-12.3416
▁Frantz	-12.3416
▁Grammar	-12.3416
▁Guevara	-12.3416
▁Gulpilil	-12.3416
▁Guttenburg	-12.3416
▁HUMAN	-12.3416
▁Haraldur	-12.3416
▁Hayworth	-12.3416
▁Hodges	-12.3416
▁Husband	-12.3416
▁Kashmir	-12.3416
▁Kutcher	-12.3416
▁Lincoln	-12.3416
▁Lundgren	-12.3416
▁Manhattan	-12.3416
▁Maribel	-12.3416
▁Mayarchuk	-12.3416
▁McBain	-12.3416
▁McDowell	-12.3416
▁Medusa	-12.3416
▁Middle	-12.3416
▁Military	-12.3416
▁Morricone	-12.3416
▁Morrissey	-12.3416
▁Motwani	-12.3416
▁Mountain	-12.3416
▁NEED	-12.3416
▁Netherlands	-12.3416
▁Nickelodeon	-12.3416
▁Nikki	-12.3416
▁OUCH	-12.3416
▁Odyssey	-12.3416
▁Opinion	-12.3416
▁Oprah	-12.3416
▁Palestinians	-12.3416
▁Philadelphia	-12.3416
▁Pinocchio	-12.3416
▁Pintauro	-12.3416
▁Plummer	-12.3416
▁Prisoners	-12.3416
▁Rangoon	-12.3416
▁Recommend	-12.3416
▁Reggi	-12.3416
▁Ritchie	-12.3416
▁Rothbart	-12.3416
▁SCRAM	-12.3416
▁Saddle	-12.3416
▁Sanitarium	-12.3416
▁Schijf	-12.3416
▁Schilling	-12.3416
▁Schneider	-12.3416
▁Schreiber	-12.3416
▁Screenplay	-12.3416
▁Seinfeld	-12.3416
▁Siberia	-12.3416
▁Simonetti	-12.3416
▁Sinclair	-12.3416
▁Suddenly	-12.3416
▁Sutek	-12.3416
▁TERRIBLE	-12.3416
▁Tavernier	-12.3416
▁Terminator	-12.3416
▁Titanic	-12.3416
▁Trailer	-12.3416
▁Travolta	-12.3416
▁Trust	-12.3416
▁Vengeance	-12.3416
▁Venice	-12.3416
▁Verghese	-12.3416
▁Violence	-12.3416
▁WARNED	-12.3416
▁Wharton	-12.3416
▁Wuhl	-12.3416
▁Zealand	-12.3416
▁abilities	-12.3416
▁abortion	-12.3416
▁adjective	-12.3416
▁ambulance	-12.3416
▁approv	-12.3416
▁arbitrarily	-12.3416
▁aspirations	-12.3416
▁assembl	-12.3416
▁assumption	-12.3416
▁attorney	-12.3416
▁believability	-12.3416
▁bouncy	-12.3416
▁captivat	-12.3416
▁categoriz	-12.3416
▁civilians	-12.3416
▁clunker	-12.3416
▁coffee	-12.3416
▁comprehend	-12.3416
▁comprehension	-12.3416
▁comprehensive	-12.3416
▁concrete	-12.3416
▁connoisseur	-12.3416
▁contrivance	-12.3416
▁crayon	-12.3416
▁cripple	-12.3416
▁custody	-12.3416
▁denouement	-12.3416
▁dessert	-12.3416
▁destination	-12.3416
▁diminuti	-12.3416
▁disrespect	-12.3416
▁draft	-12.3416
▁duplicate	-12.3416
▁elucidat	-12.3416
▁enforcement	-12.3416
▁entitled	-12.3416
▁escalat	-12.3416
▁evangelist	-12.3416
▁exaggerating	-12.3416
▁extraordinar	-12.3416
▁falsify	-12.3416
▁feminist	-12.3416
▁fizz	-12.3416
▁forgivable	-12.3416
▁fragment	-12.3416
▁friggin	-12.3416
▁galaxy	-12.3416
▁glamorous	-12.3416
▁glamour	-12.3416
▁grudge	-12.3416
▁gymnast	-12.3416
▁happiness	-12.3416
▁havoc	-12.3416
▁hijack	-12.3416
▁histrionic	-12.3416
▁horrified	-12.3416
▁horrifying	-12.3416
▁hybrid	-12.3416
▁hypnoti	-12.3416
▁hypocrite	-12.3416
▁hypocritical	-12.3416
▁indifference	-12.3416
▁infomercial	-12.3416
▁intercourse	-12.3416
▁interrogation	-12.3416
▁invalid	-12.3416
▁invincible	-12.3416
▁jacket	-12.3416
▁lacklustre	-12.3416
▁lethargic	-12.3416
▁limousine	-12.3416
▁microwav	-12.3416
▁misplaced	-12.3416
▁misspelled	-12.3416
▁motorbike	-12.3416
▁muffled	-12.3416
▁narcotic	-12.3416
▁newscaster	-12.3416
▁optimis	-12.3416
▁orphanage	-12.3416
▁orphaned	-12.3416
▁overpower	-12.3416
▁paraphras	-12.3416
▁parasite	-12.3416
▁patronizing	-12.3416
▁peanut	-12.3416
▁peculiar	-12.3416
▁pension	-12.3416
▁pepper	-12.3416
▁perpetrate	-12.3416
▁pivot	-12.3416
▁plung	-12.3416
▁poverty	-12.3416
▁provoke	-12.3416
▁psychic	-12.3416
▁recollection	-12.3416
▁redneck	-12.3416
▁refuge	-12.3416
▁rehearsal	-12.3416
▁retrospect	-12.3416
▁rhyme	-12.3416
▁rickshaw	-12.3416
▁ritual	-12.3416
▁rumour	-12.3416
▁satisfaction	-12.3416
▁schizophreni	-12.3416
▁scramble	-12.3416
▁scrawny	-12.3416
▁sensibilities	-12.3416
▁servants	-12.3416
▁stirring	-12.3416
▁stooge	-12.3416
▁strategic	-12.3416
▁suburbs	-12.3416
▁suffocat	-12.3416
▁sweeping	-12.3416
▁swipe	-12.3416
▁syphilis	-12.3416
▁tattoos	-12.3416
▁tedium	-12.3416
▁titillate	-12.3416
▁trump	-12.3416
▁uncaring	-12.3416
▁understatement	-12.3416
▁unengaging	-12.3416
▁unfinished	-12.3416
▁unimaginabl	-12.3416
▁uninvolv	-12.3416
▁unravel	-12.3416
▁unreasonable	-12.3416
▁unsettling	-12.3416
▁unsubtle	-12.3416
▁uplifting	-12.3416
▁vacuous	-12.3416
▁vanquish	-12.3416
▁vignette	-12.3416
▁waltz	-12.3416
▁watermelon	-12.3416
▁yourselves	-12.3416
Leprechaun	-12.3416
discriminate	-12.3416
orrespond	-12.3416
urethra	-12.3416
▁'78	-12.3416
▁Blonde	-12.3416
▁Chachi	-12.3416
▁EXORCIS	-12.3416
▁Executioner	-12.3416
▁Fahey	-12.3416
▁Hoffman	-12.3416
▁Nancy	-12.3416
▁Revenge	-12.3416
▁Supreme	-12.3416
▁Surrealis	-12.3416
▁Ultimate	-12.3416
▁basket	-12.3416
▁bigotry	-12.3416
▁chamber	-12.3416
▁counterpart	-12.3416
▁crisis	-12.3416
▁cryptic	-12.3416
▁deceptive	-12.3416
▁envisioned	-12.3416
▁ghoul	-12.3416
▁grub	-12.3416
▁homoerotic	-12.3416
▁immigrants	-12.3416
▁incessant	-12.3416
▁lobotom	-12.3416
▁palace	-12.3416
▁pollute	-12.3416
▁rekindl	-12.3416
▁reluctant	-12.3416
▁retiring	-12.3416
▁shrink	-12.3416
▁sketchy	-12.3416
▁stroke	-12.3416
▁synth	-12.3416
▁tepid	-12.3416
▁tribal	-12.3416
▁vulnerab	-12.3416
Arliss	-12.3416
Building	-12.3416
Tuvalu	-12.3416
axalite	-12.3416
constru	-12.3416
fetched	-12.3416
practice	-12.3416
stubborn	-12.3416
▁#1	-12.3416
▁Bassett	-12.3416
▁Beatty	-12.3416
▁Carniv	-12.3416
▁HERE	-12.3416
▁Paterno	-12.3416
▁SPACE	-12.3416
▁Thorpe	-12.3416
▁abnormal	-12.3416
▁accompany	-12.3416
▁acquire	-12.3416
▁athlete	-12.3416
▁elapse	-12.3416
▁empti	-12.3416
▁essay	-12.3416
▁expound	-12.3416
▁interminabl	-12.3416
▁jumbo	-12.3416
▁perpetual	-12.3416
▁predominant	-12.3416
▁puppy	-12.3416
▁pursue	-12.3416
▁sailor	-12.3416
▁totalitarian	-12.3416
▁violin	-12.3416
alvert	-12.3416
zzling	-12.3416
▁Benito	-12.3416
▁Cartoon	-12.3416
▁Dunne	-12.3416
▁Entertainer	-12.3416
▁Generation	-12.3416
▁MOH	-12.3416
▁Milian	-12.3416
▁Nieman	-12.3416
▁Nightmare	-12.3416
▁Reeves	-12.3416
▁Rugge	-12.3416
▁Totems	-12.3416
▁agonizing	-12.3416
▁astounded	-12.3416
▁banned	-12.3416
▁defense	-12.3416
▁fisherman	-12.3416
▁nutshell	-12.3416
▁penned	-12.3416
▁reversal	-12.3416
▁robberies	-12.3416
Jarmusch	-12.3416
homicide	-12.3416
ordinate	-12.3416
▁(2003)	-12.3416
▁Bauer	-12.3416
▁Cinder	-12.3416
▁Custer	-12.3416
▁Finland	-12.3416
▁Greco	-12.3416
▁Hooper	-12.3416
▁KOM	-12.3416
▁Karlen	-12.3416
▁Kung	-12.3416
▁Nurse	-12.3416
▁Pierce	-12.3416
▁TCM	-12.3416
▁Weaver	-12.3416
▁devote	-12.3416
▁digress	-12.3416
▁eagle	-12.3416
▁flounder	-12.3416
▁purse	-12.3416
▁sparse	-12.3416
▁spoon	-12.3416
▁spouse	-12.3416
▁vivid	-12.3416
feasible	-12.3417
▁Barker	-12.3417
▁Collins	-12.3417
▁Loeb	-12.3417
▁Neame	-12.3417
▁despicable	-12.3417
▁disdain	-12.3417
▁proverb	-12.3417
▁renamed	-12.3417
▁squid	-12.3417
▁throne	-12.3417
▁Curry	-12.3417
▁Isaac	-12.3417
▁Welsh	-12.3417
▁aftermath	-12.3417
▁profile	-12.3417
▁stupor	-12.3417
esquire	-12.3417
▁COP	-12.3417
▁Spade	-12.3417
▁deleted	-12.3417
▁drain	-12.3417
rabies	-12.3417
▁Bowers	-12.3417
▁bishop	-12.3417
▁captive	-12.3417
▁mutilation	-12.3417
▁panties	-12.3417
▁tacky	-12.3417
▁Sterling	-12.3417
▁bleep	-12.3417
▁repent	-12.3417
▁unwilling	-12.3417
ICU	-12.3417
extravagan	-12.3417
mentalist	-12.3417
▁Adrien	-12.3417
▁Choi	-12.3417
▁cooperat	-12.3417
▁FAR	-12.3417
▁inappropriate	-12.3417
rumpy	-12.3417
▁Madden	-12.3417
▁Returns	-12.3417
▁bicker	-12.3417
▁horde	-12.3417
▁mourn	-12.3417
▁nosedive	-12.3417
Winters	-12.3417
▁chunks	-12.3417
▁motif	-12.3417
▁ABC	-12.3417
▁Swordsm	-12.3417
▁disown	-12.3417
parodies	-12.3417
▁flares	-12.3417
▁summarize	-12.3417
Commando	-12.3417
▁dynamics	-12.3417
▁heritage	-12.3417
▁procedur	-12.3417
▁snobb	-12.3417
▁unjustly	-12.3417
▁Quinn	-12.3417
▁overdose	-12.3417
colleagues	-12.3417
unofficial	-12.3417
▁Doubt	-12.3417
▁Ikeda	-12.3417
▁anorexi	-12.3417
▁insinuati	-12.3417
▁Credit	-12.3417
▁wistful	-12.3417
▁Mamet	-12.3417
▁fading	-12.3417
▁sewer	-12.3417
▁mayhem	-12.3417
FOX	-12.3417
▁Snake	-12.3417
▁harri	-12.3417
▁Kru	-12.3417
▁disgr	-12.3417
▁WIS	-12.3417
▁effortlessly	-12.3417
▁exude	-12.3417
▁overnight	-12.3417
▁(1979)	-12.3417
▁elite	-12.3417
▁tube	-12.3417
▁ineptitude	-12.3417
Hindi	-12.3417
▁cohesi	-12.3417
▁disclaimer	-12.3417
▁integrated	-12.3417
1932	-12.3417
Jacque	-12.3417
▁Blockbuster	-12.3417
▁arnie	-12.3417
▁newcomer	-12.3417
▁plodding	-12.3417
▁surpasse	-12.3417
▁CHA	-12.3417
▁grimac	-12.3417
▁ease	-12.3417
▁eyeballs	-12.3417
LACK	-12.3417
▁WalMart	-12.3417
▁Boswell	-12.3417
ynchroni	-12.3417
uction	-12.3417
▁brawl	-12.3417
▁iota	-12.3417
Stargate	-12.3417
Pathetic	-12.3417
▁impetu	-12.3417
Repeat	-12.3417
▁Atkins	-12.3417
▁Jnr	-12.3417
▁mutilated	-12.3417
▁riot	-12.3417
▁Weird	-12.3417
skater	-12.3417
▁esteem	-12.3417
▁shills	-12.3417
▁carpet	-12.3417
▁awakening	-12.3417
▁implies	-12.3417
▁Underground	-12.3417
▁Arch	-12.3417
▁salvag	-12.3417
▁Rising	-12.3417
banana	-12.3417
raphic	-12.3417
RIG	-12.3417
vasive	-12.3417
▁identified	-12.3417
▁negate	-12.3417
▁torrent	-12.3417
▁Everett	-12.3417
▁babbl	-12.3417
▁Ark	-12.3417
▁earlie	-12.3417
inished	-12.3417
xcerpt	-12.3417
▁Bugged	-12.3417
▁Blakeney	-12.3417
▁Hubb	-12.3417
▁pencil	-12.3417
▁creepiness	-12.3417
▁forbid	-12.3417
▁paleontologist	-12.3417
▁iceberg	-12.3417
▁Chopp	-12.3417
▁nastie	-12.3417
▁NIGHT	-12.3417
▁endanger	-12.3417
▁prostitution	-12.3417
▁Silly	-12.3417
▁admission	-12.3417
▁bolt	-12.3417
▁entity	-12.3417
▁sleigh	-12.3417
ommentary	-12.3417
▁cement	-12.3418
▁constitute	-12.3418
▁mockery	-12.3418
▁League	-12.3418
▁ramble	-12.3418
Apollo	-12.3418
▁highbrow	-12.3418
▁permission	-12.3418
▁precis	-12.3418
Student	-12.3418
▁Point	-12.3418
▁milk	-12.3418
serving	-12.3418
▁Dorens	-12.3418
▁Ducks	-12.3418
werewolf	-12.3418
▁Roark	-12.3418
(8.	-12.3418
ercifully	-12.3418
▁orienta	-12.3418
▁Week	-12.3418
▁pockets	-12.3418
▁Wives	-12.3418
olks	-12.3418
▁awry	-12.3418
ybil	-12.3418
▁Chiba	-12.3418
▁SHOW	-12.3418
Writing	-12.3418
▁unsuit	-12.3418
▁WOOD	-12.3418
▁Capita	-12.3418
2/5	-12.3418
▁cease	-12.3418
▁Elena	-12.3418
▁bulimi	-12.3418
▁irk	-12.3418
▁Hann	-12.3418
▁suave	-12.3418
▁prank	-12.3418
▁Glad	-12.3418
▁Reich	-12.3418
▁armour	-12.3418
▁Wyn	-12.3418
▁ponderous	-12.3418
Animal	-12.3418
▁Stump	-12.3418
▁standpoint	-12.3418
▁maxim	-12.3418
▁gentleman	-12.3418
▁cliff	-12.3418
▁silk	-12.3419
▁hetero	-12.3419
▁arrangement	-12.3419
▁misunderstood	-12.3419
▁campiness	-12.3419
Wrong	-12.3419
▁Samuel	-12.3419
hapless	-12.3419
utiny	-12.3419
▁vamp	-12.3419
▁Schary	-12.3419
▁promotion	-12.3419
▁cancelled	-12.3419
▁Fantastic	-12.3419
▁daft	-12.3419
phobi	-12.3419
▁Merce	-12.3419
pstick	-12.3419
▁sleepwalk	-12.3419
▁yuck	-12.3419
ctopus	-12.3419
▁flabb	-12.3419
▁2009	-12.342
Shrek	-12.342
▁spunk	-12.342
▁Creep	-12.342
▁Raven	-12.342
▁Brell	-12.342
▁stride	-12.342
▁pathos	-12.342
▁Levy	-12.342
▁Jord	-12.342
▁Awards	-12.342
▁vegeta	-12.342
Raimi	-12.342
Mercy	-12.342
▁troy	-12.3421
▁Ivan	-12.3421
▁authorities	-12.3421
▁Shoot	-12.3421
izard	-12.3421
Bernie	-12.3421
ucci	-12.3421
▁choke	-12.3421
▁lump	-12.3421
▁wench	-12.3421
▁keen	-12.3422
▁PIMPE	-12.3422
▁compromis	-12.3422
▁Thandi	-12.3422
▁SLU	-12.3422
▁weld	-12.3422
▁emphasize	-12.3422
▁snip	-12.3422
▁Odd	-12.3422
Aryan	-12.3423
meditation	-12.3423
oliday	-12.3423
▁Hilar	-12.3423
RRY	-12.3423
▁breed	-12.3423
▁Francisc	-12.3423
roblem	-12.3423
▁intolerabl	-12.3423
partisan	-12.3424
nspiring	-12.3424
▁nick	-12.3425
▁acclaim	-12.3425
Open	-12.3426
ruddy	-12.3426
▁Becke	-12.3427
▁lava	-12.3427
▁McGu	-12.3428
EAT	-12.3428
▁SHO	-12.3428
crotch	-12.3428
▁Acad	-12.3428
ailies	-12.3428
▁Burm	-12.3428
evels	-12.3429
ssip	-12.343
atrix	-12.343
elicate	-12.343
ttens	-12.3431
▁megal	-12.3431
unstable	-12.3431
hawk	-12.3431
Kai	-12.3431
▁Ramb	-12.3433
▁exemplifie	-12.3434
ogether	-12.3435
▁detect	-12.3436
Frankenstein	-12.3438
▁intersp	-12.344
Harve	-12.3441
ealous	-12.3443
▁crab	-12.3443
stairs	-12.3444
eputy	-12.3445
ithun	-12.3445
▁steril	-12.3446
ocoon	-12.345
ULT	-12.3451
▁irredeemabl	-12.3452
illionaire	-12.3453
Summerfest	-12.3453
appiest	-12.3455
graduate	-12.3456
▁Puri	-12.3456
Weathers	-12.3456
▁Frederic	-12.3457
▁petrif	-12.3458
gadar	-12.346
wasti	-12.346
avage	-12.3461
capsul	-12.3461
▁merc	-12.3467
1945	-12.3467
▁Berlin	-12.347
ggressive	-12.347
atically	-12.3471
knob	-12.3472
IMO	-12.3472
ICAL	-12.3473
griev	-12.348
ragon	-12.3481
untle	-12.3482
8.3	-12.3484
▁ideolog	-12.3485
▁arrange	-12.3492
Wonderland	-12.3493
▁Clif	-12.3494
reache	-12.3507
penny	-12.3507
▁corr	-12.3508
Cult	-12.3521
Etc	-12.3522
▁LEA	-12.3524
deception	-12.3531
ullets	-12.3531
Columbia	-12.3531
▁frickin	-12.3532
▁Slee	-12.3533
anski	-12.3546
▁Jerr	-12.3546
▁essen	-12.3549
frank	-12.3551
eatballs	-12.3553
Should	-12.3556
▁unimpress	-12.3563
attire	-12.3569
▁deviate	-12.3581
▁abomina	-12.3582
mitten	-12.3582
MSTied	-12.3589
1977	-12.3593
View	-12.3595
innac	-12.3617
▁undress	-12.3634
Thumb	-12.3662
chwarzenegger	-12.367
nsert	-12.3682
▁shunn	-12.374
references	-12.3762
Rapi	-12.3816
impos	-12.3827
gurt	-12.3831
▁nann	-12.3834
sacre	-12.3858
current	-12.3885
Bloodsu	-12.3886
▁deformit	-12.3935
comparable	-12.3982
decid	-12.4023
▁producti	-12.4036
tanic	-12.4091
cue	-12.4099
Strangely	-12.4109
▁Jarm	-12.412
▁rescu	-12.4138
▁chimpanzee	-12.4154
Human	-12.4225
▁classifi	-12.4314
▁enabl	-12.4355
cheater	-12.4432
▁predictabl	-12.4463
▁repress	-12.455
▁Hawaii	-12.4627
▁Hamm	-12.4725
▁McMa	-12.4771
thrilling	-12.478
2.5	-12.4838
embodied	-12.4873
experienced	-12.4881
ongratulations	-12.4909
two	-12.5017
2001	-12.5032
easel	-12.5091
▁anticlima	-12.5112
▁smok	-12.5156
nterestingly	-12.524
earning	-12.5293
eeks	-12.5313
▁privilege	-12.5464
Roll	-12.5632
▁Vari	-12.5661
privileged	-12.5763
▁dispos	-12.5798
▁Interesting	-12.5945
articles	-12.6111
xcuse	-12.6219
dressing	-12.6256
▁inexperience	-12.6308
▁embodi	-12.641
▁divisi	-12.6414
ruthfully	-12.6634
awaiian	-12.6705
sapointment	-12.6723
clusive	-12.6964
builder	-12.7037
▁revisi	-12.7159
ECT	-12.7268
participants	-12.731
▁surviv	-12.7372
▁troubl	-12.7466
▁concur	-12.7579
▁appeti	-12.7585
▁Complicati	-12.7624
nspired	-12.7764
stalker	-12.7795
llusion	-12.7902
ception	-12.7984
▁margin	-12.7991
▁burge	-12.8023
▁simp	-12.806
Films	-12.807
impressive	-12.8097
smuggle	-12.8125
igator	-12.8128
rrested	-12.8196
ssault	-12.8198
ppropriate	-12.8204
▁LIV	-12.8225
1/2	-12.8285
▁substanti	-12.8291
couraging	-12.8304
onflict	-12.8306
▁disturb	-12.8309
▁challeng	-12.8309
▁multi	-12.8311
America	-12.832
spoil	-12.8325
▁Communis	-12.8332
intentional	-12.8332
▁sigh	-12.8333
Hollow	-12.8333
Major	-12.8333
Needless	-12.8333
PLEASE	-12.8333
Personally	-12.8333
Rebecca	-12.8333
WHAT	-12.8333
intensity	-12.8333
Class	-12.8333
▁releas	-12.8333
appreciated	-12.8334
mistress	-12.8334
Forsyth	-12.8334
sophisticated	-12.8334
Batman	-12.8334
Think	-12.8334
Rememb	-12.8334
Hercules	-12.8334
Seaview	-12.8334
entertain	-12.8334
revolutionary	-12.8334
terrorist	-12.8334
SNL	-12.8334
Direction	-12.8335
Meanwhile	-12.8335
Original	-12.8335
inherit	-12.8335
weapon	-12.8335
Music	-12.8335
interesting	-12.8335
Daniel	-12.8335
hopefully	-12.8335
maniac	-12.8336
pretending	-12.8336
Antoni	-12.8336
President	-12.8336
quirky	-12.8336
Adventure	-12.8336
Percy	-12.8336
Woman	-12.8336
Julian	-12.8336
Merchant	-12.8336
Natalie	-12.8336
structure	-12.8336
Bush	-12.8336
Sebastian	-12.8336
accepted	-12.8336
intense	-12.8336
warrior	-12.8336
barrel	-12.8336
Douglas	-12.8337
Jennifer	-12.8337
acceptable	-12.8337
Cuba	-12.8337
sympathetic	-12.8337
Sarah	-12.8337
Bava	-12.8337
Sadie	-12.8337
Australian	-12.8337
criminal	-12.8337
genius	-12.8337
essentially	-12.8337
offensive	-12.8337
Tarantino	-12.8337
drawn	-12.8338
Stephen	-12.8338
Jesus	-12.8338
creative	-12.8338
Christ	-12.8338
issue	-12.8338
Anthon	-12.8338
forgettable	-12.8338
Cujo	-12.8338
religious	-12.8338
figured	-12.8338
simpl	-12.8338
Russian	-12.8338
1980	-12.8338
mystery	-12.8338
fashion	-12.8338
Pinhead	-12.8338
Horror	-12.8338
military	-12.8339
Japanese	-12.8339
murder	-12.8339
Instead	-12.8339
soundtrack	-12.8339
IMDb	-12.8339
amount	-12.8339
excellent	-12.8339
major	-12.8339
children	-12.8339
large	-12.8339
è	-12.8416
{	-14.3285
^	-14.3286
£	-14.3287
́	-14.3288
q	-14.3289
